{
  "</s>": 0,
  "<unk>": 1,
  ".": 2,
  ",": 3,
  "\u2581the": 4,
  "'": 5,
  "\u2581di": 6,
  "\u2581in": 7,
  "\u2581of": 8,
  "\u2581a": 9,
  "\u2581e": 10,
  "\u2581to": 11,
  "s": 12,
  "\u2581and": 13,
  "\u2581-": 14,
  "\u2581la": 15,
  "\u2581che": 16,
  "\u2581": 17,
  "\u2581il": 18,
  "?": 19,
  "\u2581per": 20,
  ":": 21,
  "\u2581I": 22,
  "\u2581un": 23,
  "\u2581is": 24,
  "\u2581(": 25,
  "\u2581del": 26,
  "\u2581for": 27,
  "-": 28,
  "\u2581you": 29,
  "\u2581that": 30,
  "i": 31,
  "\u2581\u00e8": 32,
  "o": 33,
  "a": 34,
  "\u2581l": 35,
  "\u2581\"": 36,
  "\u2581della": 37,
  "\u2581on": 38,
  "\u2581i": 39,
  "e": 40,
  ")": 41,
  "\u2581with": 42,
  "\u2581con": 43,
  "\u2581non": 44,
  "\u2581be": 45,
  "\u2581le": 46,
  "\u2581una": 47,
  "\u2581The": 48,
  "t": 49,
  "!": 50,
  "\u2581da": 51,
  "re": 52,
  "\u2581it": 53,
  "\u2581A": 54,
  "\u2581are": 55,
  "\u2581by": 56,
  "\u2581all": 57,
  "\u2581al": 58,
  "\u2581E": 59,
  "\u2581si": 60,
  ";": 61,
  "\u2581o": 62,
  "\u2581dei": 63,
  "\u2581this": 64,
  "\u2581as": 65,
  "\u2581dell": 66,
  "\u2581from": 67,
  "ing": 68,
  "\u2581sono": 69,
  "y": 70,
  "\u2581not": 71,
  "\u2581or": 72,
  "\u2581ha": 73,
  "\u2581S": 74,
  "to": 75,
  "\u2581L": 76,
  "\u2581delle": 77,
  "\u2581have": 78,
  "\u2581In": 79,
  "\u2581La": 80,
  "\u2581was": 81,
  "\u2581nel": 82,
  "\u2581at": 83,
  "no": 84,
  "d": 85,
  "\u2581come": 86,
  "\u2581your": 87,
  "\u2581alla": 88,
  "\u2581Il": 89,
  "\u2581we": 90,
  "\u2581C": 91,
  "te": 92,
  "\u2581me": 93,
  "m": 94,
  "\u2581an": 95,
  "\"": 96,
  "\u2581can": 97,
  "\u2581pi\u00f9": 98,
  "n": 99,
  "ed": 100,
  "\u2581which": 101,
  "\u2581will": 102,
  "ta": 103,
  "\u2581B": 104,
  "\u2581ma": 105,
  "\u2581gli": 106,
  "\u2581Non": 107,
  "\u2581No": 108,
  "\u2581You": 109,
  "\u2581O": 110,
  "\u2581has": 111,
  "/": 112,
  "\u2581do": 113,
  "\u2581essere": 114,
  "\u2581It": 115,
  "\u2581ad": 116,
  "\u2581questo": 117,
  "\u2581se": 118,
  "\u2581so": 119,
  "ti": 120,
  "\u2581lo": 121,
  "in": 122,
  "er": 123,
  "\u25811": 124,
  "\u2581he": 125,
  "\u2581d": 126,
  "\u2581Ma": 127,
  "le": 128,
  "\u2581su": 129,
  "\u2581nella": 130,
  "\u2581one": 131,
  "\u2581anche": 132,
  "\u2581dal": 133,
  "va": 134,
  "\u2581no": 135,
  "\u2581Se": 136,
  "\u2581but": 137,
  "\u2581my": 138,
  "\u2581D": 139,
  "S": 140,
  "\u2581cui": 141,
  "c": 142,
  "A": 143,
  ").": 144,
  "\u2581they": 145,
  "\u2581We": 146,
  "\u2581out": 147,
  "na": 148,
  "b": 149,
  "\u2581Per": 150,
  "\u2581up": 151,
  "\u2581P": 152,
  ".\"": 153,
  "h": 154,
  "\u2581about": 155,
  "\u2581their": 156,
  "\u2581ed": 157,
  "\u2581more": 158,
  "\u2581Le": 159,
  "\u2581degli": 160,
  "ly": 161,
  "or": 162,
  "\u25812": 163,
  "g": 164,
  "\u2581its": 165,
  "\u2581This": 166,
  "\u2581ai": 167,
  "ndo": 168,
  "\u2581European": 169,
  "\u2581what": 170,
  "\u2581tra": 171,
  "\u2581loro": 172,
  "\u2581his": 173,
  "\u2581also": 174,
  "\u2581been": 175,
  "\u2581ci": 176,
  "l": 177,
  "\u2581T": 178,
  "\u2581And": 179,
  "\u2581know": 180,
  "\u2581He": 181,
  "\u2581F": 182,
  "\u2581our": 183,
  "\u2581there": 184,
  "\u2581alle": 185,
  "ve": 186,
  "),": 187,
  "\u2581Si": 188,
  "\u2581other": 189,
  "\u2581mi": 190,
  "di": 191,
  "al": 192,
  "\u2581sul": 193,
  "\u2581like": 194,
  "\u2581who": 195,
  "\u2581c": 196,
  "\u2581Commission": 197,
  "\u2581time": 198,
  "\u2581were": 199,
  "\u2581should": 200,
  "\u2581de": 201,
  "\u2581Commissione": 202,
  "ri": 203,
  "\u2581G": 204,
  "vi": 205,
  "\u2581dalla": 206,
  "\u2581would": 207,
  "\u2581re": 208,
  "\u2581ho": 209,
  "\u25813": 210,
  "\u2581What": 211,
  "\u2581M": 212,
  "\u2581just": 213,
  "C": 214,
  "\u2581stato": 215,
  "\u2581if": 216,
  "\u2581parte": 217,
  "ll": 218,
  "\u2581tutti": 219,
  "mo": 220,
  "\u2581s": 221,
  "on": 222,
  "\u2581solo": 223,
  "\u2581H": 224,
  "r": 225,
  "es": 226,
  "\u2581p": 227,
  "ne": 228,
  "\u2581&": 229,
  "\u2581shall": 230,
  "\u2581.": 231,
  "\u2581due": 232,
  "la": 233,
  "\u2581sulla": 234,
  "\u2581hanno": 235,
  "\u2581questa": 236,
  "co": 237,
  "\u2581suo": 238,
  "ro": 239,
  "\u2581them": 240,
  "\u2581Ho": 241,
  "\u2581sia": 242,
  "\u25815": 243,
  "ca": 244,
  "\u2581fa": 245,
  "li": 246,
  "\u25814": 247,
  "\u2581So": 248,
  "\u2581Mi": 249,
  "k": 250,
  "\u2581new": 251,
  "\u2581only": 252,
  "\u2581pu\u00f2": 253,
  "\u2581get": 254,
  "\u2581sua": 255,
  "\u2581here": 256,
  "\u2581us": 257,
  "ni": 258,
  "\u2581any": 259,
  "\u2581into": 260,
  "lo": 261,
  "\u258110": 262,
  "\u2581ti": 263,
  "che": 264,
  "\u2581when": 265,
  "\u2581n": 266,
  "\u2581him": 267,
  "\u2581right": 268,
  "\u2581had": 269,
  "\u2581go": 270,
  "\u2581her": 271,
  "\u2581nell": 272,
  "si": 273,
  "\u2581don": 274,
  "\u2581cosa": 275,
  "de": 276,
  "p": 277,
  "\u2581Di": 278,
  "\u2581Article": 279,
  "\u2581To": 280,
  "\u2581tutto": 281,
  "\u2581V": 282,
  "\u2581prima": 283,
  "\u2581R": 284,
  "\u2581than": 285,
  "E": 286,
  "\u2581may": 287,
  "\u2581uno": 288,
  "se": 289,
  "=": 290,
  "\u2581qui": 291,
  "\u2581did": 292,
  "\u2581people": 293,
  "\u2581molto": 294,
  "\u2581Do": 295,
  "\u2581these": 296,
  "\u2581Member": 297,
  "\u2581some": 298,
  "\u2581Stati": 299,
  "\u2581K": 300,
  "\u2581vi": 301,
  "B": 302,
  "amp": 303,
  "\u2581anni": 304,
  "vo": 305,
  "\u2581fatto": 306,
  "\u2581b": 307,
  "\u2581first": 308,
  "\u2581now": 309,
  "\u2581sta": 310,
  "th": 311,
  "\u2581N": 312,
  "\u2581use": 313,
  "tel": 314,
  "\u2581two": 315,
  "da": 316,
  "ci": 317,
  "\u2581Re": 318,
  "\u2581Council": 319,
  "\u2581era": 320,
  "\u2581fare": 321,
  "\u2581Con": 322,
  "\u2581Ha": 323,
  "\u2581must": 324,
  "\u2581very": 325,
  "O": 326,
  "\u2581Lo": 327,
  "\u2581quando": 328,
  "\u2581Vi": 329,
  "\u2581States": 330,
  "\u2581modo": 331,
  "nte": 332,
  ",\"": 333,
  "ah": 334,
  "\u2581where": 335,
  "\u2581quanto": 336,
  "\u2581nei": 337,
  "\u2581need": 338,
  "\u25816": 339,
  "\u2581membri": 340,
  "\u2581ri": 341,
  "\u2581such": 342,
  "ra": 343,
  "\u2581Consiglio": 344,
  "\u2581want": 345,
  "\u2581altri": 346,
  "\u2581lavoro": 347,
  "I": 348,
  "\u2581For": 349,
  "en": 350,
  "ma": 351,
  "\u2581between": 352,
  "\u2581take": 353,
  "\u2581information": 354,
  "\u2581Un": 355,
  "\u2581make": 356,
  "\u2581work": 357,
  "zione": 358,
  "\u2581Al": 359,
  "\u2581over": 360,
  "nti": 361,
  "\u2581Ci": 362,
  "\u2581te": 363,
  "\u2581ne": 364,
  "\u2581mio": 365,
  "\u00e8": 366,
  "\u2581dall": 367,
  "iamo": 368,
  "\u2581That": 369,
  "\u2581those": 370,
  "\u2581see": 371,
  "ka": 372,
  "\u2581bene": 373,
  "ce": 374,
  "\u2581could": 375,
  "\u2581ogni": 376,
  "\u2581But": 377,
  "\u2581If": 378,
  "\u2581tuo": 379,
  "\u2581way": 380,
  "F": 381,
  "\u2581good": 382,
  "\u2581sa": 383,
  "\u2581tempo": 384,
  "\u2581well": 385,
  "2": 386,
  "sti": 387,
  "\u2581made": 388,
  "\u2581Che": 389,
  "\u2581back": 390,
  "\u2581europea": 391,
  "\u2581data": 392,
  "\u2581far": 393,
  "\u2581years": 394,
  "f": 395,
  "\u2581De": 396,
  "mi": 397,
  "ia": 398,
  "\u2581Community": 399,
  "go": 400,
  "\u2581m": 401,
  "\u2581she": 402,
  "\u2581most": 403,
  "\u2581co": 404,
  "D": 405,
  "\u2581quello": 406,
  "\u2581ancora": 407,
  "\u2581God": 408,
  "\u2581pre": 409,
  "\u2581'": 410,
  "\u2581Regulation": 411,
  "\u2581under": 412,
  "tta": 413,
  "\u2581W": 414,
  "\u2581think": 415,
  "articolo": 416,
  "\u2581J": 417,
  "\u2581file": 418,
  "\u2581\u20ac": 419,
  "\u2581regolamento": 420,
  "sta": 421,
  "\u2581po": 422,
  "\u2581prodotti": 423,
  "\u2581base": 424,
  "\u2581\u00c8": 425,
  "us": 426,
  "\u2581Mr": 427,
  "\u2581got": 428,
  "\u2581All": 429,
  "\u2581senza": 430,
  "\u25817": 431,
  "\u2581Co": 432,
  "\u2581There": 433,
  "\u2581Ca": 434,
  "\u2581vita": 435,
  "\u258112": 436,
  "H": 437,
  "\u2581does": 438,
  "ho": 439,
  "\u25818": 440,
  "\u258120": 441,
  "P": 442,
  "\u2581fine": 443,
  "amo": 444,
  "\u2581io": 445,
  "\u2581down": 446,
  "\u2581cos\u00ec": 447,
  "\u258115": 448,
  "\u2581then": 449,
  "\u2581how": 450,
  "\u2581Dio": 451,
  "do": 452,
  "lla": 453,
  "ers": 454,
  "um": 455,
  "\u2581possono": 456,
  "\u2581nelle": 457,
  "one": 458,
  "\u2581sempre": 459,
  "L": 460,
  "T": 461,
  "\u2581...": 462,
  "\u2581used": 463,
  "ic": 464,
  "\u258118": 465,
  "zioni": 466,
  "\u2581tu": 467,
  "\u2581Sono": 468,
  "\u2581pro": 469,
  "\u2581because": 470,
  "\u2581after": 471,
  "\u2581products": 472,
  "\u2581San": 473,
  "\u2581world": 474,
  "sa": 475,
  "\u2581deve": 476,
  "\u2581Ro": 477,
  "an": 478,
  "com": 479,
  "\u2581casa": 480,
  "\u2581dopo": 481,
  "\u2581stata": 482,
  "\u2581through": 483,
  "\u2581even": 484,
  "\u2581U": 485,
  "M": 486,
  "\u2581many": 487,
  "\u2581informazioni": 488,
  "\u2581mia": 489,
  "\u2581caso": 490,
  "\u2581Questo": 491,
  "it": 492,
  "ck": 493,
  "\u2581Sa": 494,
  "\u2581Go": 495,
  "\u2581Ye": 496,
  "\u2581life": 497,
  "\u2581dove": 498,
  "\u258130": 499,
  "\u2581europeo": 500,
  "\u2581day": 501,
  "\u25819": 502,
  "\u2581Oh": 503,
  "\u2581perch\u00e9": 504,
  "\u2581They": 505,
  "\u2581va": 506,
  "\u2581Com": 507,
  "\u2581km": 508,
  "\u2581persone": 509,
  "\u2581Come": 510,
  "ate": 511,
  "Unione": 512,
  "\u2581[": 513,
  "\u2581same": 514,
  "ha": 515,
  "tte": 516,
  "\u2581part": 517,
  "et": 518,
  "\u2581sei": 519,
  "\u258119": 520,
  "\u2581detto": 521,
  "\u2581man": 522,
  "is": 523,
  "\u2581year": 524,
  "\u2581sistema": 525,
  "\u2581area": 526,
  "\u2581presente": 527,
  "\u2581am": 528,
  "w": 529,
  "\u2581said": 530,
  "\u2581grande": 531,
  "so": 532,
  "un": 533,
  "\u2581tutte": 534,
  "zza": 535,
  "rsi": 536,
  "\u2581/": 537,
  "ry": 538,
  "x": 539,
  "\u2581before": 540,
  "me": 541,
  "\u2581Car": 542,
  "\u2581case": 543,
  "\u2581noi": 544,
  "\u2581place": 545,
  "\u2581Da": 546,
  "\u2581Union": 547,
  "est": 548,
  "\u2581mondo": 549,
  "\u2581system": 550,
  "\u2581Ti": 551,
  "gli": 552,
  "\u2581tale": 553,
  "\u2581order": 554,
  "\u2581mai": 555,
  "ie": 556,
  "\u2581punto": 557,
  "\u2581nostro": 558,
  "\u2581being": 559,
  "\u2581set": 560,
  "\u2581going": 561,
  "\u2581Hotel": 562,
  "\u2581giorno": 563,
  "\u2581chi": 564,
  "\u2581Ri": 565,
  "CE": 566,
  "\u2581find": 567,
  "ation": 568,
  "\u2581questi": 569,
  "\u2581volta": 570,
  "ad": 571,
  "\u2581As": 572,
  "\u2581EU": 573,
  "\u2581via": 574,
  "\u2581say": 575,
  "ach": 576,
  "\u2581f": 577,
  "il": 578,
  "\u2581paesi": 579,
  "\u2581car": 580,
  "V": 581,
  "\u2581g": 582,
  "\u2581dai": 583,
  "\u2581Mo": 584,
  "\u2581agli": 585,
  "tto": 586,
  "\u2581market": 587,
  "\u2581paragrafo": 588,
  "be": 589,
  "\u2581_": 590,
  "\u2581mercato": 591,
  "io": 592,
  "\u2581ora": 593,
  "\u2581particolare": 594,
  "\u2581help": 595,
  "\u2581within": 596,
  "\u2581She": 597,
  "\u2581tre": 598,
  "\u2581Well": 599,
  "ur": 600,
  "G": 601,
  "era": 602,
  "\u2581dati": 603,
  "u": 604,
  "am": 605,
  "azione": 606,
  "man": 607,
  "\u2581How": 608,
  "\u2581On": 609,
  "\u2581countries": 610,
  "the": 611,
  "gon": 612,
  "EC": 613,
  "\u2581sull": 614,
  "st": 615,
  "\u2581dello": 616,
  "\u2581nuovo": 617,
  "\u2581possibile": 618,
  "\u2581New": 619,
  "\u258124": 620,
  "\u2581tua": 621,
  "\u2581Gli": 622,
  "\u25810": 623,
  "ment": 624,
  "\u2581livello": 625,
  "om": 626,
  "\u2581ca": 627,
  "\u2581secondo": 628,
  "\u2581Chi": 629,
  "\u2581number": 630,
  "rlo": 631,
  "\u2581fino": 632,
  "\u2581following": 633,
  "\u2581=": 634,
  "\u2581stesso": 635,
  "\u2581each": 636,
  "\u2581abbiamo": 637,
  "W": 638,
  "bbiamo": 639,
  "ver": 640,
  "\u2581without": 641,
  "\u2581col": 642,
  "\u2581much": 643,
  "pe": 644,
  "ist": 645,
  "\u2581stati": 646,
  "\u2581Parliament": 647,
  "\u2581sviluppo": 648,
  "mente": 649,
  "]": 650,
  "\u2581t": 651,
  "ato": 652,
  "\u2581Parlamento": 653,
  "\u2581suoi": 654,
  "\u2581proprio": 655,
  "rmi": 656,
  "ies": 657,
  "\u2581too": 658,
  "\u2581citt\u00e0": 659,
  "\u2581own": 660,
  "\u2581Nel": 661,
  "\u2581quella": 662,
  "\u2581Comunit\u00e0": 663,
  "\u2581available": 664,
  "\u2581Italia": 665,
  "1": 666,
  "\u2581primo": 667,
  "\u2581servizi": 668,
  "\u258111": 669,
  "\u2581sotto": 670,
  "v": 671,
  "\u2581programma": 672,
  "\u2581li": 673,
  "\u258114": 674,
  "\u2581state": 675,
  "\u258116": 676,
  "\u2581sar\u00e0": 677,
  "N": 678,
  "\u2581sui": 679,
  "\u2581still": 680,
  "up": 681,
  "\u2581Va": 682,
  "\u2581three": 683,
  "\u2581Pi": 684,
  "\u2581great": 685,
  "llo": 686,
  "\u2581last": 687,
  "tti": 688,
  "ga": 689,
  "\u2581quali": 690,
  "\u2581prodotto": 691,
  "\u2581long": 692,
  "\u2581Sta": 693,
  "\u2581free": 694,
  "\u2581pu": 695,
  "\u2581love": 696,
  "\u2581best": 697,
  "\u2581dire": 698,
  "\u2581altre": 699,
  "\u2581different": 700,
  "\u2581quale": 701,
  "per": 702,
  "\u2581Mar": 703,
  "hi": 704,
  "\u2581high": 705,
  "\u2581every": 706,
  "\u2581Europe": 707,
  "\u2581dalle": 708,
  "\u2581comune": 709,
  "\u2581sulle": 710,
  "\u2581point": 711,
  "ge": 712,
  "\u2581important": 713,
  "r\u00e0": 714,
  "\u2581both": 715,
  "\u2581politica": 716,
  "\u2581off": 717,
  "ano": 718,
  "\u2581viene": 719,
  "\u2581altro": 720,
  "im": 721,
  "\u2581really": 722,
  "tore": 723,
  "\u2581#": 724,
  "\u2581Wi": 725,
  "are": 726,
  "\u2581settore": 727,
  "ba": 728,
  "able": 729,
  "\u2581attivit\u00e0": 730,
  "\u2581quindi": 731,
  "\u2581nostra": 732,
  "\u2581ricerca": 733,
  "rti": 734,
  "\u2581numero": 735,
  "\u2581Stato": 736,
  "\u2581Me": 737,
  "The": 738,
  "sse": 739,
  "\u258113": 740,
  "ar": 741,
  "\u2581gi\u00e0": 742,
  "\u2581lei": 743,
  "\u258125": 744,
  "\u2581State": 745,
  "\u2581sicurezza": 746,
  "ant": 747,
  "\u2581measures": 748,
  "\u258117": 749,
  "\u2581give": 750,
  "U": 751,
  "\u2581fu": 752,
  "ol": 753,
  "\u2581services": 754,
  "\u2581during": 755,
  "\u2581Su": 756,
  "\u2581pi": 757,
  "\u2581policy": 758,
  "ter": 759,
  "3": 760,
  "con": 761,
  "\u2581momento": 762,
  "\u2581national": 763,
  "\u2581possible": 764,
  "chi": 765,
  "\u2581poi": 766,
  "\u2581direttiva": 767,
  "rci": 768,
  "\u2581something": 769,
  "\u2581public": 770,
  "\u2581contro": 771,
  "z": 772,
  "\u2581siamo": 773,
  "\u2581social": 774,
  "ness": 775,
  "\u2581end": 776,
  "\u258122": 777,
  "\u2581little": 778,
  "\u2581lui": 779,
  "ex": 780,
  "\u2581particular": 781,
  "\u2581Pro": 782,
  "\u2581Cosa": 783,
  "anno": 784,
  "\u2581room": 785,
  "\u2581esempio": 786,
  "ine": 787,
  "t\u00e0": 788,
  "\u2581An": 789,
  "mento": 790,
  "\u2581Be": 791,
  "\u2581circa": 792,
  "\u2581President": 793,
  "\u2581tipo": 794,
  "\u2581Pre": 795,
  "\u2581fra": 796,
  "\u2581report": 797,
  "bile": 798,
  "ny": 799,
  "\u2581queste": 800,
  "\u2581support": 801,
  "\u2581Bo": 802,
  "R": 803,
  "\u2581Fa": 804,
  "\u2581sito": 805,
  "at": 806,
  "\u2581Una": 807,
  "\u2581against": 808,
  "\u2581relazione": 809,
  "\u2581Italy": 810,
  "\u2581Po": 811,
  "\u2581home": 812,
  "\u2581development": 813,
  "\u2581nome": 814,
  "\u2581misure": 815,
  "sh": 816,
  "\u2581Committee": 817,
  "\u2581view": 818,
  "00": 819,
  "\u2581level": 820,
  "\u2581product": 821,
  "tu": 822,
  "\u2581Bar": 823,
  "K": 824,
  "\u2581avere": 825,
  "\u2581name": 826,
  "\u2581condizioni": 827,
  "bi": 828,
  "ir": 829,
  "ian": 830,
  "\u2581always": 831,
  "tra": 832,
  "\u2581alcuni": 833,
  "\u2581Directive": 834,
  "\u2581water": 835,
  "UE": 836,
  "\u2581never": 837,
  "\u2581Io": 838,
  "el": 839,
  "\u258121": 840,
  "\u2581May": 841,
  "\u2581*": 842,
  "room": 843,
  "\u2581look": 844,
  "\u2581Pa": 845,
  "\u2581design": 846,
  "\u2581giorni": 847,
  "\u2581qualit\u00e0": 848,
  "\u2581Home": 849,
  "ion": 850,
  "ria": 851,
  "\u2581ci\u00f2": 852,
  "\u2581visto": 853,
  "\u2581means": 854,
  "_": 855,
  "\u2581real": 856,
  "\u2581qualcosa": 857,
  "\u2581decisione": 858,
  "\u2581centro": 859,
  "\u2581again": 860,
  "\u2581cose": 861,
  "\u2581rispetto": 862,
  "\u2581house": 863,
  "ty": 864,
  "\u2581II": 865,
  "\u2581periodo": 866,
  "\u2581let": 867,
  "\u2581vero": 868,
  "\u2581durante": 869,
  "\u2581anti": 870,
  "as": 871,
  "\u2581meno": 872,
  "ggi": 873,
  "\u2581tell": 874,
  "\u2581conditions": 875,
  "sci": 876,
  "\u2581Tra": 877,
  "\u2581oggi": 878,
  "zzo": 879,
  "\u2581Ta": 880,
  "\u2581Questa": 881,
  "\u2581My": 882,
  "ity": 883,
  "\u2581mo": 884,
  "\u2581days": 885,
  "ch": 886,
  "\u2581trova": 887,
  "\u2581ro": 888,
  "\u2581gruppo": 889,
  "\u2581night": 890,
  "\u2581gu": 891,
  "\u2581pa": 892,
  "\u2581another": 893,
  "\u2581economic": 894,
  "\u2581bisogno": 895,
  "\u2581tali": 896,
  "\u2581St": 897,
  "\u2581voi": 898,
  "\u2581already": 899,
  "sto": 900,
  "\u2581Can": 901,
  "\u2581Tu": 902,
  "\u2581while": 903,
  "rai": 904,
  "\u2581hotel": 905,
  "\u2581Presidente": 906,
  "\u2581ex": 907,
  "\u2581around": 908,
  "\u2581found": 909,
  "pa": 910,
  "\u2581better": 911,
  "\u2581aver": 912,
  "\u2581put": 913,
  "vano": 914,
  "fa": 915,
  "son": 916,
  "ke": 917,
  "\u2581posto": 918,
  "\u2581When": 919,
  "\u2581service": 920,
  "\u2581small": 921,
  "\u2581At": 922,
  "\u2581Why": 923,
  "\u2581piu": 924,
  "\u2581piano": 925,
  "nza": 926,
  "\u2581devono": 927,
  "\u2581Yes": 928,
  "\u2581online": 929,
  "\u2581verso": 930,
  "\u2581Grazie": 931,
  "\u2581period": 932,
  "\u2581why": 933,
  "\u2581city": 934,
  "\u2581mean": 935,
  "\u2581country": 936,
  "\u2581things": 937,
  "\u2581since": 938,
  "\u2581+": 939,
  "\u2581family": 940,
  "\u2581conto": 941,
  "\u2581including": 942,
  "\u2581nostri": 943,
  "\u2581mentre": 944,
  "gi": 945,
  "\u2581necessary": 946,
  "\u2581With": 947,
  "mma": 948,
  "\u2581societ\u00e0": 949,
  "\u2581nuova": 950,
  "\u2581vista": 951,
  "\u258150": 952,
  "\u2581children": 953,
  "\u2581Thank": 954,
  "\u2581paese": 955,
  "\u00f2": 956,
  "fi": 957,
  "\u2581provided": 958,
  "\u2581controllo": 959,
  "\u2581away": 960,
  "\u2581com": 961,
  "\u2581produzione": 962,
  "\u2581fuori": 963,
  "\u2581account": 964,
  "\u2581Ne": 965,
  "ale": 966,
  "\u2581price": 967,
  "\u2581terra": 968,
  "\u2581Te": 969,
  "\u2581Ra": 970,
  "\u2581parti": 971,
  "ster": 972,
  "\u25811.": 973,
  "\u2581materia": 974,
  "\u2581course": 975,
  "\u2581Nell": 976,
  "menti": 977,
  "\u2581necessario": 978,
  "\u2581Articolo": 979,
  "\u2581financial": 980,
  "ina": 981,
  "\u2581Is": 982,
  "cca": 983,
  "\u2581S\u00ec": 984,
  "\u2581andare": 985,
  "\u2581sue": 986,
  "and": 987,
  "\u2581taken": 988,
  "gna": 989,
  "\u2581importante": 990,
  "\u2581common": 991,
  "\u2581diritto": 992,
  "nto": 993,
  "\u2581quel": 994,
  "\u2581persona": 995,
  "\u2581second": 996,
  "bo": 997,
  "uck": 998,
  "smo": 999,
  "\u2581business": 1000,
  "\u2581France": 1001,
  "rd": 1002,
  "ton": 1003,
  "\u2581Italian": 1004,
  "line": 1005,
  "end": 1006,
  "\u2581human": 1007,
  "\u2581today": 1008,
  "\u2581siano": 1009,
  "\u258131": 1010,
  "ung": 1011,
  "tori": 1012,
  "\u2581servizio": 1013,
  "\u2581hand": 1014,
  "\u2581offers": 1015,
  "\u2581100": 1016,
  "\u2581ore": 1017,
  "\u2581Your": 1018,
  "\u2581Par": 1019,
  "\u2581video": 1020,
  "\u2581allo": 1021,
  "\u2581special": 1022,
  "\u2581sociale": 1023,
  "\u2581bar": 1024,
  "\u2581open": 1025,
  "\u2581volte": 1026,
  "\u2581certain": 1027,
  "\u2581able": 1028,
  "\u2581negli": 1029,
  "\u2581person": 1030,
  "\u2581thing": 1031,
  "sco": 1032,
  "\u2581generale": 1033,
  "\u2581qualsiasi": 1034,
  "\u2581few": 1035,
  "ora": 1036,
  "\u2581therefore": 1037,
  "he": 1038,
  "\u2581quality": 1039,
  "4": 1040,
  "\u2581together": 1041,
  "\u2581Quando": 1042,
  "Beh": 1043,
  "\u2581given": 1044,
  "use": 1045,
  "age": 1046,
  "\u2581production": 1047,
  "\u2581fact": 1048,
  "\u2022": 1049,
  "\u2581Now": 1050,
  "\u2581luogo": 1051,
  "\u2581using": 1052,
  "\u2581vedere": 1053,
  "\u2581date": 1054,
  "\u2581forma": 1055,
  "*": 1056,
  "\u2581doing": 1057,
  "\u2581X": 1058,
  "ism": 1059,
  "\u2581molti": 1060,
  "\u2581procedure": 1061,
  "\u2581old": 1062,
  "\u2581Let": 1063,
  "\u2581vostro": 1064,
  "pi": 1065,
  "\u2581Don": 1066,
  "mail": 1067,
  "der": 1068,
  "\u2581attraverso": 1069,
  "\u2581favore": 1070,
  "out": 1071,
  "rla": 1072,
  "ary": 1073,
  "\u2581ba": 1074,
  "\u2581Ver": 1075,
  "\u2581auto": 1076,
  "\u2581full": 1077,
  "\u2581Or": 1078,
  "\u2581working": 1079,
  "\u2581oltre": 1080,
  "\u2581problema": 1081,
  "\u2581prezzo": 1082,
  "\u258123": 1083,
  "ste": 1084,
  "\u2581international": 1085,
  "\u2581example": 1086,
  "\u2581bi": 1087,
  "ati": 1088,
  "ng": 1089,
  "ggio": 1090,
  "\u2581euro": 1091,
  "\u2581progetto": 1092,
  "\u2581stay": 1093,
  "\u2581foto": 1094,
  "glia": 1095,
  "\u2581inoltre": 1096,
  "tro": 1097,
  "\u2581application": 1098,
  "\u2581access": 1099,
  "lu": 1100,
  "ana": 1101,
  "\u2581posizione": 1102,
  "\u2581problemi": 1103,
  "\u2581future": 1104,
  "\u2581proposta": 1105,
  "ut": 1106,
  "\u2581call": 1107,
  "\u2581anno": 1108,
  "\u2581kind": 1109,
  "\u2581tutta": 1110,
  "\u2581dovrebbe": 1111,
  "\u2581light": 1112,
  "\u2581Where": 1113,
  "ook": 1114,
  "qui": 1115,
  "\u2581million": 1116,
  "\u2581Free": 1117,
  "\u2581aveva": 1118,
  "accordo": 1119,
  "\u2581membro": 1120,
  "ente": 1121,
  "In": 1122,
  "\u2581media": 1123,
  "\u2581quelli": 1124,
  "\u2581porta": 1125,
  "rio": 1126,
  "\u2581meglio": 1127,
  "ite": 1128,
  "\u2581third": 1129,
  "\u2581TV": 1130,
  "ssi": 1131,
  "\u2581whole": 1132,
  "\u2581corso": 1133,
  "\u2581law": 1134,
  "J": 1135,
  "\u2581potrebbe": 1136,
  "\u2581next": 1137,
  "\u2581idea": 1138,
  "\u2581fi": 1139,
  "\u2581provide": 1140,
  "\u2581Val": 1141,
  "ere": 1142,
  "zio": 1143,
  "\u2581diversi": 1144,
  "ello": 1145,
  "\u2581cosi": 1146,
  "\u2581men": 1147,
  "mm": 1148,
  "\u2581milioni": 1149,
  "\u2581w": 1150,
  "\u2581control": 1151,
  "\u2581accordance": 1152,
  "\u2581insieme": 1153,
  "au": 1154,
  "\u2581Jo": 1155,
  "\u2581davvero": 1156,
  "ino": 1157,
  "ranno": 1158,
  "\u2581diritti": 1159,
  "\u2581Ba": 1160,
  "os": 1161,
  "\u2581web": 1162,
  "ts": 1163,
  "\u2581present": 1164,
  "\u2581sarebbe": 1165,
  "\u2581process": 1166,
  "\u2581grandi": 1167,
  "ent": 1168,
  "\u2581bambini": 1169,
  "Y": 1170,
  "\u258128": 1171,
  "\u2581letto": 1172,
  "\u2581sure": 1173,
  "\u2581aid": 1174,
  "\u2581imprese": 1175,
  "\u2581might": 1176,
  "\u2581large": 1177,
  "\u2581called": 1178,
  "\u2581believe": 1179,
  "\u2581regard": 1180,
  "\u2581Bi": 1181,
  "\u2581Jesus": 1182,
  "\u2581En": 1183,
  "\u2581qualche": 1184,
  "\u2581software": 1185,
  "\u2581show": 1186,
  "\u2581ensure": 1187,
  "\u2581EUR": 1188,
  "cchi": 1189,
  "\u2581main": 1190,
  "altra": 1191,
  "\u2581offre": 1192,
  "ata": 1193,
  "r\u00f2": 1194,
  "\u2581areas": 1195,
  "ssa": 1196,
  "\u2581stessa": 1197,
  "ner": 1198,
  "\u2581based": 1199,
  "\u2581These": 1200,
  "\u2581power": 1201,
  "\u2581question": 1202,
  "\u2581possibilit\u00e0": 1203,
  "\u2581local": 1204,
  "\u2581Roma": 1205,
  "ow": 1206,
  "stra": 1207,
  "anti": 1208,
  "\u2581United": 1209,
  "\u2581Our": 1210,
  "\u2581energy": 1211,
  "\u2581Na": 1212,
  "\u2581rules": 1213,
  "\u2581THE": 1214,
  "\u2581activities": 1215,
  "\u2581change": 1216,
  "\u2581situazione": 1217,
  "\u2581form": 1218,
  "\u2581posso": 1219,
  "\u2581grado": 1220,
  "\u2581site": 1221,
  "\u2581riguarda": 1222,
  "\u2581seguito": 1223,
  "\u2581lungo": 1224,
  "\u2581pag": 1225,
  "\u2581famiglia": 1226,
  "ul": 1227,
  "\u2581Ex": 1228,
  "\u2581body": 1229,
  "\u2581located": 1230,
  "altro": 1231,
  "\u2581until": 1232,
  "\u2581company": 1233,
  "rne": 1234,
  "lli": 1235,
  "\u2581causa": 1236,
  "\u2581minuti": 1237,
  "\u2581Internet": 1238,
  "\u2581group": 1239,
  "for": 1240,
  "\u2581prezzi": 1241,
  "\u2581One": 1242,
  "\u2581Ar": 1243,
  "tura": 1244,
  "\u2581ta": 1245,
  "\u266a": 1246,
  "ish": 1247,
  "\u2581storia": 1248,
  "za": 1249,
  "\u2581erano": 1250,
  "\u2581camera": 1251,
  "\u2581processo": 1252,
  "ace": 1253,
  "\u2581apart": 1254,
  "\u2581December": 1255,
  "\u258126": 1256,
  "\u2581heart": 1257,
  "\u2581basis": 1258,
  "\u2581action": 1259,
  "\u2581experience": 1260,
  "\u2581rooms": 1261,
  "\u2581trovare": 1262,
  "\u2581grazie": 1263,
  "lle": 1264,
  "\u2581specific": 1265,
  "\u2581less": 1266,
  "\u2581v": 1267,
  "less": 1268,
  "\u2581having": 1269,
  "ive": 1270,
  "\u258127": 1271,
  "\u2581protection": 1272,
  "\u2581least": 1273,
  "po": 1274,
  "\u2581tratta": 1275,
  "les": 1276,
  "\u2581further": 1277,
  "\u2581done": 1278,
  "\u2581left": 1279,
  "\u2581termine": 1280,
  "\u2581value": 1281,
  "\u2581successo": 1282,
  "ali": 1283,
  "cen": 1284,
  "rvi": 1285,
  "\u2581mesi": 1286,
  "nta": 1287,
  "\u2581money": 1288,
  "\u2581Ad": 1289,
  "\u2581nuovi": 1290,
  "\u2581Gi": 1291,
  "\u2581start": 1292,
  "\u2581air": 1293,
  "\u2581big": 1294,
  "fo": 1295,
  "\u258140": 1296,
  "\u2581en": 1297,
  "La": 1298,
  "\u2581autorit\u00e0": 1299,
  "\u2581live": 1300,
  "\u2581film": 1301,
  "ghi": 1302,
  "\u2581saranno": 1303,
  "\u2581general": 1304,
  "\u2581came": 1305,
  "\u2581Ora": 1306,
  "\u2581dato": 1307,
  "\u2581research": 1308,
  "\u2581ben": 1309,
  "ture": 1310,
  "day": 1311,
  "\u2581gestione": 1312,
  "\u2581nazionali": 1313,
  "\u2581From": 1314,
  "\u2581rights": 1315,
  "ita": 1316,
  "\u2581Annex": 1317,
  "\u2581care": 1318,
  "\u2581Gu": 1319,
  "\u2581Not": 1320,
  "\u2581quelle": 1321,
  "\u2581presso": 1322,
  "\u2581x": 1323,
  "\u2581Sp": 1324,
  "\u2581Ges\u00f9": 1325,
  "\u2581line": 1326,
  "\u2581thought": 1327,
  "ccia": 1328,
  "\u2581authorities": 1329,
  "\u2581ever": 1330,
  "\u2581months": 1331,
  "\u2581Perch\u00e9": 1332,
  "\u2581niente": 1333,
  "\u2581computer": 1334,
  "\u2581programme": 1335,
  "\u2581diverse": 1336,
  "\u2581art": 1337,
  "\u2581cent": 1338,
  "\u2581quadro": 1339,
  "\u2581studio": 1340,
  "uomo": 1341,
  "sioni": 1342,
  "\u2581fini": 1343,
  "\u2581campo": 1344,
  "\u2581mg": 1345,
  "\u2581Z": 1346,
  "\u2581cannot": 1347,
  "olo": 1348,
  "rie": 1349,
  "\u2581risultati": 1350,
  "\u2581become": 1351,
  "X": 1352,
  "\u2581vengono": 1353,
  "rono": 1354,
  "\u2581abbia": 1355,
  "\u2581test": 1356,
  "\u2581lot": 1357,
  "\u2581migliore": 1358,
  "19": 1359,
  "\u2581However": 1360,
  "\u2581tanto": 1361,
  "op": 1362,
  "\u2581referred": 1363,
  "\u2581times": 1364,
  "\u2581dicembre": 1365,
  "\u2581trattamento": 1366,
  "\u2581Who": 1367,
  "\u2581offer": 1368,
  "EEC": 1369,
  "\u2581Y": 1370,
  "\u2581private": 1371,
  "\u2581Pu": 1372,
  "\u2581Check": 1373,
  "\u2581valore": 1374,
  "ling": 1375,
  "\u2581ago": 1376,
  "ys": 1377,
  "\u2581keep": 1378,
  "\u2581standard": 1379,
  "\u2581food": 1380,
  "\u2581male": 1381,
  "\u2581Just": 1382,
  "que": 1383,
  "\u2581camere": 1384,
  "\u2581progetti": 1385,
  "\u2581disposizioni": 1386,
  "\u2581Fi": 1387,
  "\u2581hours": 1388,
  "ven": 1389,
  "\u2581domanda": 1390,
  "\u2581Are": 1391,
  "\u2581June": 1392,
  "\u2581above": 1393,
  "rs": 1394,
  "\u2581Man": 1395,
  "\u2581single": 1396,
  "\u2581mm": 1397,
  "\u2581close": 1398,
  "ak": 1399,
  "\u2581prendere": 1400,
  "\u00e9": 1401,
  "\u2581nuove": 1402,
  "\u2581Ja": 1403,
  "\u2581feel": 1404,
  "CEE": 1405,
  "0": 1406,
  "uso": 1407,
  "\u2581sto": 1408,
  "\u2581Treaty": 1409,
  "\u2581.\"": 1410,
  "\u2581Quindi": 1411,
  "\u2581young": 1412,
  "\u2581More": 1413,
  "\u2581decision": 1414,
  "\u2581proposal": 1415,
  "\u2581include": 1416,
  "land": 1417,
  "\u2581nazionale": 1418,
  "\u2581needs": 1419,
  "\u2581fosse": 1420,
  "\u2581internazionale": 1421,
  "\u20ac": 1422,
  "illa": 1423,
  "ava": 1424,
  "\u2581Anche": 1425,
  "\u2581inter": 1426,
  ".00": 1427,
  "\u2581Ac": 1428,
  "\u2581list": 1429,
  "men": 1430,
  "una": 1431,
  "\u2581political": 1432,
  "\u2581respect": 1433,
  "how": 1434,
  "\u2581subject": 1435,
  "\u2581side": 1436,
  "\u2581project": 1437,
  "\u2581type": 1438,
  "\u2581nonch\u00e9": 1439,
  "\u25812.": 1440,
  "\u2581sembra": 1441,
  "ick": 1442,
  "\u2581sea": 1443,
  "\u258129": 1444,
  "\u2581problem": 1445,
  "\u2581situation": 1446,
  "\u2581cost": 1447,
  "\u2581Tre": 1448,
  "\u2581total": 1449,
  "\u2581adopted": 1450,
  "gt": 1451,
  "\u2581problems": 1452,
  "\u2581casi": 1453,
  "\u2581position": 1454,
  "\u25812007": 1455,
  "\u2581zona": 1456,
  "\u2581transport": 1457,
  "\u2581relative": 1458,
  "\u2581play": 1459,
  "\u2581various": 1460,
  "\u2581anything": 1461,
  "\u2581Fo": 1462,
  "\u2581allora": 1463,
  "\u2581mare": 1464,
  "\u2581minutes": 1465,
  "\u2581cuore": 1466,
  "\u2581Look": 1467,
  "\u2581training": 1468,
  "\u2581please": 1469,
  "\u2581Signor": 1470,
  "30": 1471,
  "\u2581formazione": 1472,
  "\u2581Pens": 1473,
  "\u2581women": 1474,
  "ore": 1475,
  "\u2581dice": 1476,
  "\u25811,": 1477,
  "fe": 1478,
  "\u2581Comitato": 1479,
  "\u2581avuto": 1480,
  "\u2581questione": 1481,
  "\u2581es": 1482,
  "\u2581beautiful": 1483,
  "\u2581taking": 1484,
  "ese": 1485,
  "\u2581Signore": 1486,
  "\u2581talk": 1487,
  "\u2581By": 1488,
  "\u2581gas": 1489,
  "\u2581bu": 1490,
  "\u2581CE": 1491,
  "\u2581living": 1492,
  "\u2581struttura": 1493,
  "fer": 1494,
  "\u2581vicino": 1495,
  "\u2581everything": 1496,
  "ors": 1497,
  "\u2581health": 1498,
  "\u2581uomini": 1499,
  "\u2581voglio": 1500,
  "\u2581Decision": 1501,
  "\u2581richiesta": 1502,
  "bili": 1503,
  "by": 1504,
  "can": 1505,
  "\u2581bo": 1506,
  "Europa": 1507,
  "\u2581troppo": 1508,
  "\u2581Art": 1509,
  "\u2581Please": 1510,
  "\u2581Bu": 1511,
  "iti": 1512,
  "\u2581totale": 1513,
  "\u2581sopra": 1514,
  "id": 1515,
  "\u2581cooperazione": 1516,
  "\u2581making": 1517,
  "\u2581trade": 1518,
  "pri": 1519,
  "\u2581viaggio": 1520,
  "ok": 1521,
  "\u2581prova": 1522,
  "\u2581bilancio": 1523,
  "\u2581giugno": 1524,
  "su": 1525,
  "\u2581alcune": 1526,
  "nce": 1527,
  "\u2581serie": 1528,
  "\u2581norme": 1529,
  "sce": 1530,
  "tri": 1531,
  "\u2581management": 1532,
  "\u2581concerned": 1533,
  "\u2581cooperation": 1534,
  "\u2581quest": 1535,
  "\u2581among": 1536,
  "\u2581told": 1537,
  "\u2581vostra": 1538,
  "\u2581sector": 1539,
  "\u2581seguenti": 1540,
  "\u2581possiamo": 1541,
  "\u2581results": 1542,
  "sca": 1543,
  "\u2581!": 1544,
  "\u2581town": 1545,
  "\u2581legge": 1546,
  "\u2581bath": 1547,
  "ments": 1548,
  "\u2581appropriate": 1549,
  "\u2581Allora": 1550,
  "\u2581donne": 1551,
  "\u2581dagli": 1552,
  "\u2581partire": 1553,
  "ure": 1554,
  "\u2581protezione": 1555,
  "\u2581photo": 1556,
  "\u2581John": 1557,
  "\u2581whether": 1558,
  "ani": 1559,
  "\u2581?": 1560,
  "\u2581interest": 1561,
  "glio": 1562,
  "\u2581request": 1563,
  "\u2581natural": 1564,
  "\u2581pubblico": 1565,
  "\u2581Church": 1566,
  "ten": 1567,
  "cina": 1568,
  "\u2581DI": 1569,
  "we": 1570,
  "\u2581lettera": 1571,
  "\u2581vuoi": 1572,
  "\u2581security": 1573,
  "ola": 1574,
  "\u2581four": 1575,
  "nia": 1576,
  "\u2581Christ": 1577,
  "\u2581force": 1578,
  "\u2581entro": 1579,
  "\u2581page": 1580,
  "\u2581Europa": 1581,
  "\u2581Tri": 1582,
  "\u2581House": 1583,
  "ui": 1584,
  "\u2581Ch": 1585,
  "\u2581March": 1586,
  "\u2581ask": 1587,
  "\u2581effetti": 1588,
  "\u2581padre": 1589,
  "\u2581took": 1590,
  "ard": 1591,
  "\u2581industry": 1592,
  "\u2581(1)": 1593,
  "\u2581vuole": 1594,
  "interno": 1595,
  "gno": 1596,
  "\u2581clear": 1597,
  "\u2581cu": 1598,
  "ero": 1599,
  "\u2581Geo": 1600,
  "\u2581yet": 1601,
  "\u2581Cor": 1602,
  "\u2581once": 1603,
  "\u2581provisions": 1604,
  "bb": 1605,
  "\u2581trattato": 1606,
  "\u2581linea": 1607,
  "dy": 1608,
  "allegato": 1609,
  "16": 1610,
  "\u2581Ga": 1611,
  "\u2581systems": 1612,
  "\u2581invece": 1613,
  "\u2581matter": 1614,
  "\u2581meeting": 1615,
  "nde": 1616,
  "\u25812016": 1617,
  "\u258160": 1618,
  "pt": 1619,
  "\u2581luce": 1620,
  "\u2581disponibilit\u00e0": 1621,
  "\u2581January": 1622,
  "\u2581riferimento": 1623,
  "\u2581Fe": 1624,
  "\u2581companies": 1625,
  "\u2581Dopo": 1626,
  "\u2581try": 1627,
  "\u2581mano": 1628,
  "+": 1629,
  "\u2581misura": 1630,
  "\u2581risk": 1631,
  "\u2581seconda": 1632,
  "\u2581appena": 1633,
  "\u2581certo": 1634,
  "\u2581book": 1635,
  "gia": 1636,
  "\u2581parlare": 1637,
  "\u2581result": 1638,
  "tic": 1639,
  "\u2581Inoltre": 1640,
  "\u2581personal": 1641,
  "\u2581nothing": 1642,
  "\u2581capacit\u00e0": 1643,
  "\u2581Ka": 1644,
  "ru": 1645,
  "\u2581amico": 1646,
  "ous": 1647,
  "\u2581dare": 1648,
  "\u2581cm": 1649,
  "\u2581gioco": 1650,
  "j": 1651,
  "applicazione": 1652,
  "\u2581field": 1653,
  "\u2581almeno": 1654,
  "\u2581sistemi": 1655,
  "\u2581Then": 1656,
  "\u2581After": 1657,
  "\u2581garantire": 1658,
  "\u25812015": 1659,
  "ren": 1660,
  "\u2581poter": 1661,
  "\u2581maggior": 1662,
  "\u2581uomo": 1663,
  "ambito": 1664,
  "ki": 1665,
  "\u2581spesso": 1666,
  "\u2581leave": 1667,
  "\u2581maggiore": 1668,
  "\u2581miei": 1669,
  "\u2581economico": 1670,
  "\u2581sorry": 1671,
  "\u2581requirements": 1672,
  "\u2581legal": 1673,
  "ker": 1674,
  "\u2581increase": 1675,
  "\u2581disponibili": 1676,
  "all": 1677,
  "\u2581Christian": 1678,
  "wa": 1679,
  "Il": 1680,
  "\u2581sale": 1681,
  "\u2581personale": 1682,
  "\u2581valutazione": 1683,
  "wi": 1684,
  "ella": 1685,
  "\u2581ruolo": 1686,
  "\u2581strada": 1687,
  "\u2581Col": 1688,
  "nt": 1689,
  "\u2581building": 1690,
  "\u2581superiore": 1691,
  "\u2581quasi": 1692,
  "\u2581OF": 1693,
  "oli": 1694,
  "\u2581plan": 1695,
  "uo": 1696,
  "\u2581near": 1697,
  "6": 1698,
  "\u2581World": 1699,
  ");": 1700,
  "\u2581programmi": 1701,
  "ssimo": 1702,
  "\u2581notte": 1703,
  "ac": 1704,
  "oni": 1705,
  "\u2581won": 1706,
  "\u2581prices": 1707,
  "\u2581Pass": 1708,
  "\u2581agreement": 1709,
  "ler": 1710,
  "\u25813,": 1711,
  "\u2581Bene": 1712,
  "\u2581punti": 1713,
  "\u2581quattro": 1714,
  "aria": 1715,
  "stro": 1716,
  "\u2581contact": 1717,
  "\u2581trasporto": 1718,
  "\u2581Court": 1719,
  "\u2581sh": 1720,
  "\u2581corpo": 1721,
  "):": 1722,
  "\u2581Mer": 1723,
  "\u2581often": 1724,
  "\u2581Santa": 1725,
  "\u25812,": 1726,
  "\u2581ce": 1727,
  "\u2581known": 1728,
  "\u2581cittadini": 1729,
  "\u2581opinion": 1730,
  "\u2581Ap": 1731,
  "\u2581game": 1732,
  "ja": 1733,
  "\u2581soprattutto": 1734,
  "\u2581key": 1735,
  "\u2581environment": 1736,
  "\u2581piace": 1737,
  "\u2581disponibile": 1738,
  "\u2581senso": 1739,
  "\u2581Ni": 1740,
  "\u2581Cristo": 1741,
  "\u2581true": 1742,
  "\u2581par": 1743,
  "\u2581technical": 1744,
  "\u2581pagina": 1745,
  "\u2581July": 1746,
  "zzi": 1747,
  "\u2581amount": 1748,
  "sso": 1749,
  "ley": 1750,
  "\u2581nature": 1751,
  "\u2581treatment": 1752,
  "\u2581economica": 1753,
  "10": 1754,
  "\u2581coming": 1755,
  "\u2581looking": 1756,
  "\u2581tax": 1757,
  "\u2581head": 1758,
  "\u2581others": 1759,
  "\u2581Ecco": 1760,
  "\u2581members": 1761,
  "art": 1762,
  "\u2581vendita": 1763,
  "EN": 1764,
  "\u2581spazio": 1765,
  "\u2581seen": 1766,
  "eri": 1767,
  "ran": 1768,
  "\u2581according": 1769,
  "\u2581understand": 1770,
  "\u2581Ste": 1771,
  "mp": 1772,
  "\u2581final": 1773,
  "\u2581terms": 1774,
  "\u2581serve": 1775,
  "\u2581qualcuno": 1776,
  "ps": 1777,
  "\u2581Good": 1778,
  "\u2581clienti": 1779,
  "\u2581October": 1780,
  "\u2581bit": 1781,
  "ell": 1782,
  "\u2581migliori": 1783,
  "\u2581low": 1784,
  "remo": 1785,
  "\u2581El": 1786,
  "\u2581post": 1787,
  "\u2581concerning": 1788,
  "\u2581rischio": 1789,
  "ica": 1790,
  "\u2581upon": 1791,
  "\u2581hope": 1792,
  "\u2581several": 1793,
  "\u2581futuro": 1794,
  "\u2581Of": 1795,
  "\u2581stop": 1796,
  "\u2581direttamente": 1797,
  "\u2581hard": 1798,
  "\u2581natura": 1799,
  "\u2581mu": 1800,
  "\u2581facendo": 1801,
  "\u2581sapere": 1802,
  "\u2581Dr": 1803,
  "gni": 1804,
  "\u2581America": 1805,
  "\u2581enough": 1806,
  "\u2581obiettivi": 1807,
  "\u2581h": 1808,
  "lia": 1809,
  "\u25812014": 1810,
  "ible": 1811,
  "\u2581settimana": 1812,
  "\u2581soltanto": 1813,
  "\u2581Maria": 1814,
  "ns": 1815,
  "\u2581subito": 1816,
  "\u2581costs": 1817,
  "tter": 1818,
  "\u2581train": 1819,
  "8": 1820,
  "\u2581required": 1821,
  "\u2581azioni": 1822,
  "\u2581works": 1823,
  "\u2581ra": 1824,
  "\u2581search": 1825,
  "\u2581risorse": 1826,
  "\u2581meet": 1827,
  "\u2581dose": 1828,
  "\u2581ottenere": 1829,
  "\u2581gennaio": 1830,
  "\u2581propria": 1831,
  "\u2581however": 1832,
  "ghe": 1833,
  "gio": 1834,
  "\u2581past": 1835,
  "zo": 1836,
  "\u2581makes": 1837,
  "\u2581governo": 1838,
  "\u2581Here": 1839,
  "atto": 1840,
  "tion": 1841,
  "\u2581centre": 1842,
  "acqua": 1843,
  "\u2581mind": 1844,
  "50": 1845,
  "\u2581safety": 1846,
  "\u2581signor": 1847,
  "\u2581Group": 1848,
  "\u2581Camp": 1849,
  "\u2581Dove": 1850,
  "\u2581apply": 1851,
  "ise": 1852,
  "ful": 1853,
  "\u2581principale": 1854,
  "ight": 1855,
  "\u2581pazienti": 1856,
  "\u2581job": 1857,
  "\u2581forse": 1858,
  "\u2581figlio": 1859,
  "nd": 1860,
  "\u2581costi": 1861,
  "\u2581current": 1862,
  "\u2581buona": 1863,
  "\u2581Ben": 1864,
  "\u2581relativa": 1865,
  "turi": 1866,
  "\u2581later": 1867,
  "\u2581n\u00e9": 1868,
  "\u2581comuni": 1869,
  "\u2581Some": 1870,
  "\u2581Pe": 1871,
  "\u00e0": 1872,
  "\u2581elementi": 1873,
  "\u2581Jeho": 1874,
  "\u2581Lord": 1875,
  "\u2581Via": 1876,
  "\u2581bagno": 1877,
  "\u2581gente": 1878,
  "\u2581bring": 1879,
  "port": 1880,
  "\u2581possa": 1881,
  "\u2581land": 1882,
  "\u2581went": 1883,
  "\u25813.": 1884,
  "\u2581Ru": 1885,
  "gen": 1886,
  "\u2581travel": 1887,
  "\u2581oppure": 1888,
  "\u2581parere": 1889,
  "\u2581applicazione": 1890,
  "ier": 1891,
  "\u2581short": 1892,
  "20": 1893,
  "ang": 1894,
  "\u2581school": 1895,
  "\u2581five": 1896,
  "\u2581paragraph": 1897,
  "\u2581Lu": 1898,
  "\u2581politiche": 1899,
  "\u2581City": 1900,
  "\u2581rate": 1901,
  "\u2581Pal": 1902,
  "\u2581implementation": 1903,
  "\u2581comunicazione": 1904,
  "\u2581added": 1905,
  "ndi": 1906,
  "\u2581Ven": 1907,
  "\u2581effect": 1908,
  "\u25812013": 1909,
  "\u2581Chiesa": 1910,
  "\u2581especially": 1911,
  "\u2581floor": 1912,
  "\u2581words": 1913,
  "\u2581blood": 1914,
  "\u2581projects": 1915,
  "int": 1916,
  "ico": 1917,
  "\u2581International": 1918,
  "ole": 1919,
  "\u2581budget": 1920,
  "ig": 1921,
  "\u2581September": 1922,
  "\u2581continue": 1923,
  "\u2581madre": 1924,
  "\u2581mese": 1925,
  "cu": 1926,
  "\u2581Tour": 1927,
  "\u2581procedura": 1928,
  "\u2581events": 1929,
  "ona": 1930,
  "\u2581pesca": 1931,
  "\u2581k": 1932,
  "ze": 1933,
  "\u2581wanted": 1934,
  "cre": 1935,
  "\u2581articoli": 1936,
  "\u2581top": 1937,
  "ari": 1938,
  "\u2581along": 1939,
  "\u2581Park": 1940,
  "\u2581capo": 1941,
  "\u2581strumenti": 1942,
  "\u2581rete": 1943,
  "\u2581animali": 1944,
  "\u2581Monte": 1945,
  "ete": 1946,
  "ffi": 1947,
  "\u2581cases": 1948,
  "\u2581April": 1949,
  "\u2581kid": 1950,
  "\u2581Uniti": 1951,
  "ted": 1952,
  "\u2581performance": 1953,
  "\u2581sub": 1954,
  "\u2581aiuti": 1955,
  "onorevole": 1956,
  "\u2581significa": 1957,
  "\u2581create": 1958,
  "ting": 1959,
  "ura": 1960,
  "\u2581interno": 1961,
  "\u2581principali": 1962,
  "\u2581included": 1963,
  "\u2581check": 1964,
  "\u2581considered": 1965,
  "\u2581nostre": 1966,
  "\u2581forza": 1967,
  "\u2581ve": 1968,
  "\u2581sound": 1969,
  "Z": 1970,
  "\u2581locali": 1971,
  "\u00b0": 1972,
  "\u2581face": 1973,
  "\u2581Tutti": 1974,
  "\u2581alta": 1975,
  "\u2581visit": 1976,
  "\u2581sca": 1977,
  "\u2581mezzo": 1978,
  "Q": 1979,
  "\u2581range": 1980,
  "\u2581treno": 1981,
  "ious": 1982,
  "\u25812000": 1983,
  "\u2581donna": 1984,
  "\u2581offerte": 1985,
  "\u2581sostegno": 1986,
  "\u2581legno": 1987,
  "\u2581Lei": 1988,
  "\u2581ten": 1989,
  "\u2581role": 1990,
  "par": 1991,
  "\u2581See": 1992,
  "\u2581cucina": 1993,
  "\u2581reason": 1994,
  "\u2581Tuttavia": 1995,
  "ger": 1996,
  "\u2581figli": 1997,
  "way": 1998,
  "\u2581soluzione": 1999,
  "\u2581parole": 2000,
  "\u2581posti": 2001,
  "\u2581miles": 2002,
  "let": 2003,
  "bra": 2004,
  "\u2581history": 2005,
  "\u25812012": 2006,
  "\u2581Guard": 2007,
  "\u2581model": 2008,
  "\u2581pace": 2009,
  "\u2581mar": 2010,
  "\u2581adesso": 2011,
  "\u2581farlo": 2012,
  "\u2581towards": 2013,
  "\u2581Wa": 2014,
  "\u2581vari": 2015,
  "via": 2016,
  "\u2581resources": 2017,
  "book": 2018,
  "q": 2019,
  "\u2581event": 2020,
  "tamento": 2021,
  "\u2581fede": 2022,
  "\u2581super": 2023,
  "ss": 2024,
  "\u2581morte": 2025,
  "\u2581Mon": 2026,
  "\u2581wood": 2027,
  "\u2581addition": 2028,
  "\u2581testo": 2029,
  "\u2581directly": 2030,
  "\u2581guest": 2031,
  "\u2581moment": 2032,
  "ance": 2033,
  "yl": 2034,
  "\u2581nello": 2035,
  "cco": 2036,
  "\u2581November": 2037,
  "\u2581Contact": 2038,
  "\u2581spa": 2039,
  "\u2581points": 2040,
  "\u2581Q": 2041,
  "\u2581testa": 2042,
  "\u2581giovani": 2043,
  "\u2581guida": 2044,
  "\u2581prende": 2045,
  "zi": 2046,
  "\u2581bad": 2047,
  "ris": 2048,
  "\u2581trovato": 2049,
  "ena": 2050,
  "\u2581musica": 2051,
  "\u2581tuoi": 2052,
  "\u2581macchina": 2053,
  "zia": 2054,
  "\u2581uso": 2055,
  "ire": 2056,
  "\u2581region": 2057,
  "\u2581says": 2058,
  "\u2581website": 2059,
  "\u2581Vol": 2060,
  "\u25812010": 2061,
  "ice": 2062,
  "\u2581Paul": 2063,
  "\u2581English": 2064,
  "actually": 2065,
  "gra": 2066,
  "\u2581double": 2067,
  "\u2581sicuro": 2068,
  "\u2581either": 2069,
  "\u2581Fu": 2070,
  "rli": 2071,
  "\u2581pari": 2072,
  "EU": 2073,
  "\u2581luglio": 2074,
  "\u2581(2)": 2075,
  "rante": 2076,
  "king": 2077,
  "\u2581friend": 2078,
  "\u25812009": 2079,
  "\u2581patients": 2080,
  "\u2581cura": 2081,
  "\u2581r": 2082,
  "\u2581comes": 2083,
  "\u2581Francia": 2084,
  "\u2581Sch": 2085,
  "\u2581personali": 2086,
  "ws": 2087,
  "ya": 2088,
  "\u2581bus": 2089,
  "pre": 2090,
  "\u2581held": 2091,
  "\u2581Del": 2092,
  "\u2581nessuno": 2093,
  "\u2581accommodation": 2094,
  "side": 2095,
  "\u2581itself": 2096,
  "\u25812008": 2097,
  "\u2581crescita": 2098,
  "\u2581sco": 2099,
  "\u2581capital": 2100,
  "\u2581girl": 2101,
  "\u2581easy": 2102,
  "\u2581established": 2103,
  "ini": 2104,
  "\u258180": 2105,
  "\u2581pure": 2106,
  "\u2581week": 2107,
  "\u2581maggio": 2108,
  "\u00c3": 2109,
  "ser": 2110,
  "\u2581original": 2111,
  "\u2581Regn": 2112,
  "vel": 2113,
  "\u2581Dal": 2114,
  "\u2581para": 2115,
  "\u2581regime": 2116,
  "\u2581centrale": 2117,
  "\u2581termini": 2118,
  "nu": 2119,
  "Con": 2120,
  "\u2581pay": 2121,
  "\u2581200": 2122,
  "ber": 2123,
  "\u2581disposizione": 2124,
  "\u2581read": 2125,
  "\u2581particularly": 2126,
  "\u2581run": 2127,
  "\u2581study": 2128,
  "\u2581preso": 2129,
  "tor": 2130,
  "\u2581soggiorno": 2131,
  "\u2581His": 2132,
  "\u2581settembre": 2133,
  "\u2581poco": 2134,
  "\u2581content": 2135,
  "\u2581space": 2136,
  "\u2581death": 2137,
  "\u2581son": 2138,
  "ambiente": 2139,
  "\u2581tuttavia": 2140,
  "\u2581perfect": 2141,
  "\u2581address": 2142,
  "rt": 2143,
  "\u2581Euro": 2144,
  "\u2581importanti": 2145,
  "\u2581prove": 2146,
  "\u2581complete": 2147,
  "\u25812011": 2148,
  "mod": 2149,
  "\u2581necessit\u00e0": 2150,
  "\u2581per\u00f2": 2151,
  "\u2581sensi": 2152,
  "\u2581Bre": 2153,
  "tica": 2154,
  "\u2581network": 2155,
  "\u2581Did": 2156,
  "\u2581avete": 2157,
  "\u2581forte": 2158,
  "\u2581major": 2159,
  "\u2581size": 2160,
  "\u2581Alla": 2161,
  "\u25812019": 2162,
  "\u2581relevant": 2163,
  "\u2581average": 2164,
  "hl": 2165,
  "\u2581half": 2166,
  "\u2581zone": 2167,
  "\u2581realt\u00e0": 2168,
  "\u2581deal": 2169,
  "\u2581settori": 2170,
  "\u2581credo": 2171,
  "\u2581met": 2172,
  "\u2581partner": 2173,
  "\u2581cinque": 2174,
  "pro": 2175,
  "\u2581government": 2176,
  "mpi": 2177,
  "\u2581Republic": 2178,
  "\u2581Era": 2179,
  "\u2581Cha": 2180,
  "\u2581General": 2181,
  "\u2581III": 2182,
  "\u2581accordo": 2183,
  "\u2581Data": 2184,
  "osa": 2185,
  "\u2581issue": 2186,
  "\u2581Mus": 2187,
  "gg": 2188,
  "\u2581father": 2189,
  "\u2581turn": 2190,
  "mmo": 2191,
  "\u2581scelta": 2192,
  "\u2581York": 2193,
  "ccio": 2194,
  "\u2581ottobre": 2195,
  "\u2581hear": 2196,
  "\u2581music": 2197,
  "of": 2198,
  "\u2581genere": 2199,
  "em": 2200,
  "pp": 2201,
  "\u2581walk": 2202,
  "\u2581Rome": 2203,
  "\u2581piedi": 2204,
  "\u2581wine": 2205,
  "wo": 2206,
  "\u2581europee": 2207,
  "\u2581senti": 2208,
  "\u2581trying": 2209,
  "oso": 2210,
  "\u2581GU": 2211,
  "\u2581risposta": 2212,
  "\u2581creare": 2213,
  "\u2581essi": 2214,
  "\u2581details": 2215,
  "rle": 2216,
  "\u2581proposte": 2217,
  "\u2581regione": 2218,
  "\u2581nulla": 2219,
  "\u2581internet": 2220,
  "\u2581individual": 2221,
  "\u2581sede": 2222,
  "\u2581semplice": 2223,
  "\u2581molte": 2224,
  "\u2581fun": 2225,
  "rre": 2226,
  "\u2581ragione": 2227,
  "\u2581soon": 2228,
  "lan": 2229,
  "ai": 2230,
  "cy": 2231,
  "\u2581material": 2232,
  "\u2581US": 2233,
  "\u2581Add": 2234,
  "hop": 2235,
  "\u2581Agreement": 2236,
  "\u2581persons": 2237,
  "@": 2238,
  "\u2581app": 2239,
  "AL": 2240,
  "\u2581Book": 2241,
  "\u2581pe": 2242,
  "\u2581du": 2243,
  "tur": 2244,
  "5": 2245,
  "tive": 2246,
  "\u2581age": 2247,
  "\u2581faccia": 2248,
  "\u2581wrong": 2249,
  "\u2581Social": 2250,
  "\u2581Germany": 2251,
  "\u2581Forse": 2252,
  "ph": 2253,
  "\u2581marzo": 2254,
  "\u2581piccolo": 2255,
  "\u2581framework": 2256,
  "\u2581salute": 2257,
  "\u2581Dis": 2258,
  "zze": 2259,
  "\u25812018": 2260,
  "ou": 2261,
  "\u2581sin": 2262,
  "bor": 2263,
  "\u2581comunitario": 2264,
  "\u2581South": 2265,
  "\u2581norma": 2266,
  "\u2581carrello": 2267,
  "arte": 2268,
  "ab": 2269,
  "\u2581sociali": 2270,
  "\u2581enjoy": 2271,
  "\u2581follow": 2272,
  "\u2581articolo": 2273,
  "\u2581Africa": 2274,
  "\u2581permette": 2275,
  "\u2581French": 2276,
  "\u2581white": 2277,
  "\u2581growth": 2278,
  "\u2581fin": 2279,
  "\u2581Web": 2280,
  "\u2581avrebbe": 2281,
  "\u2581designed": 2282,
  "\u2581goods": 2283,
  "\u2581novembre": 2284,
  "\u2581Inter": 2285,
  "$": 2286,
  "\u2581tro": 2287,
  "\u2581dis": 2288,
  "part": 2289,
  "\u2581aiuto": 2290,
  "\u2581fronte": 2291,
  "\u2581vede": 2292,
  "\u2581essa": 2293,
  "\u2581soli": 2294,
  "\u2581giusto": 2295,
  "\u2581Apart": 2296,
  "\u2581fanno": 2297,
  "\u2581mother": 2298,
  "\u2581built": 2299,
  "\u2581road": 2300,
  "\u2581ye": 2301,
  "\u2581metri": 2302,
  "\u25812005": 2303,
  "\u2581aiuta": 2304,
  "\u2581Corte": 2305,
  "\u2581vigore": 2306,
  "\u2581February": 2307,
  "\u2581cause": 2308,
  "den": 2309,
  "Re": 2310,
  "\u2581devo": 2311,
  "\u2581century": 2312,
  "\u2581Repubblica": 2313,
  "\u2581motivo": 2314,
  "\u2581unico": 2315,
  "\u2581dovuto": 2316,
  "zz": 2317,
  "\u2581saw": 2318,
  "\u2581migliorare": 2319,
  "\u2581pertanto": 2320,
  "\u2581institutions": 2321,
  "ile": 2322,
  "du": 2323,
  "\u2581studi": 2324,
  "\u2581Other": 2325,
  "\u2581carried": 2326,
  "\u2581ultimi": 2327,
  "log": 2328,
  "\u2581wish": 2329,
  "\u2581titolo": 2330,
  "\u2581legislation": 2331,
  "\u2581someone": 2332,
  "\u2581ragazzi": 2333,
  "\u2581black": 2334,
  "\u25812004": 2335,
  "\u2581commissione": 2336,
  "udi": 2337,
  "\u25812006": 2338,
  "\u2581pensa": 2339,
  "\u2581outside": 2340,
  "\u2581getting": 2341,
  "\u2581related": 2342,
  "\u2581society": 2343,
  "\u2581mostra": 2344,
  "\u2581mediante": 2345,
  "\u2581effects": 2346,
  "\u2581riguardo": 2347,
  "ron": 2348,
  "\u2581rather": 2349,
  "\u2581volume": 2350,
  "\u2581prefer": 2351,
  "\u2581ero": 2352,
  "\u2581rapporto": 2353,
  "sione": 2354,
  "\u2581relativo": 2355,
  "ff": 2356,
  "\u2581relativi": 2357,
  "\u2581mon": 2358,
  "\u2581takes": 2359,
  "\u2581happened": 2360,
  "stica": 2361,
  "ning": 2362,
  "\u2581Gran": 2363,
  "\u2581language": 2364,
  "\u2581drive": 2365,
  "\u2581dispiace": 2366,
  "cul": 2367,
  "\u2581nice": 2368,
  "\u2581thus": 2369,
  "\u2581allow": 2370,
  "ug": 2371,
  "cal": 2372,
  "\u2581eventi": 2373,
  "IT": 2374,
  "ave": 2375,
  "\u2581raggiungere": 2376,
  "\u2581specie": 2377,
  "\u2581tipi": 2378,
  "\u2581IN": 2379,
  "\u2581text": 2380,
  "\u2581Centro": 2381,
  "\u2581ecc": 2382,
  "rri": 2383,
  "24": 2384,
  "\u2581lavori": 2385,
  "\u2581table": 2386,
  "\u2581equipment": 2387,
  "\u2581gruppi": 2388,
  "\u2581move": 2389,
  "\u2581American": 2390,
  "ultima": 2391,
  "\u2581friends": 2392,
  "\u2581scopo": 2393,
  "je": 2394,
  "\u2581OJ": 2395,
  "\u2581Qui": 2396,
  "\u2581word": 2397,
  "\u2581levels": 2398,
  "25": 2399,
  "\u2581Kingdom": 2400,
  "DE": 2401,
  "\u2581fire": 2402,
  "\u2581acqua": 2403,
  "industria": 2404,
  "\u2581additional": 2405,
  "\u2581tramite": 2406,
  "\u2581Read": 2407,
  "\u2581longer": 2408,
  "\u2581technology": 2409,
  "gle": 2410,
  "\u2581else": 2411,
  "\u2581materials": 2412,
  "mmi": 2413,
  "van": 2414,
  "\u2581note": 2415,
  "\u2581competition": 2416,
  "\u2581pool": 2417,
  "\u2581im": 2418,
  "mer": 2419,
  "\u2581oil": 2420,
  "\u2581dead": 2421,
  "\u2581Cer": 2422,
  "\u2581provides": 2423,
  "\u2581front": 2424,
  "9": 2425,
  "\u2581merito": 2426,
  "\u2581items": 2427,
  "\u2581regioni": 2428,
  "\u2581host": 2429,
  "ized": 2430,
  "\u2581funzione": 2431,
  "SE": 2432,
  "\u2581almost": 2433,
  "ES": 2434,
  "\u2581Numero": 2435,
  "\u258190": 2436,
  "\u2581Gen": 2437,
  "\u2581ru": 2438,
  "\u2581difficile": 2439,
  "\u2581yourself": 2440,
  "\u2581Ju": 2441,
  "\u2581thanks": 2442,
  "\u2581Voglio": 2443,
  "tan": 2444,
  "\u2581parla": 2445,
  "\u2581regional": 2446,
  "ind": 2447,
  "\u2581territorio": 2448,
  "\u2581passato": 2449,
  "\u2581employment": 2450,
  "scia": 2451,
  "\u2581alto": 2452,
  "\u2581Because": 2453,
  "\u2581presidente": 2454,
  "\u25812017": 2455,
  "\u2581kill": 2456,
  "\u2581materiali": 2457,
  "\u2581infatti": 2458,
  "\u2581guerra": 2459,
  "tre": 2460,
  "\u2581education": 2461,
  "\u2581Germania": 2462,
  "\u2581amici": 2463,
  "\u2581child": 2464,
  "\u2581propriet\u00e0": 2465,
  "ko": 2466,
  "\u2581return": 2467,
  "\u2581Search": 2468,
  "\u2581Air": 2469,
  "\u2581changes": 2470,
  "\u2581share": 2471,
  "rb": 2472,
  "cia": 2473,
  "ks": 2474,
  "gge": 2475,
  "\u2581ufficiale": 2476,
  "gri": 2477,
  "\u2581dovrebbero": 2478,
  "\u2581party": 2479,
  "inizio": 2480,
  "\u2581solution": 2481,
  "\u2581needed": 2482,
  "my": 2483,
  "\u2581remember": 2484,
  "\u2581effective": 2485,
  "\u2581modello": 2486,
  "\u2581$": 2487,
  "\u2581Any": 2488,
  "\u2581saying": 2489,
  "\u2581Garden": 2490,
  "\u2581succede": 2491,
  "\u2581welcome": 2492,
  "nato": 2493,
  "stico": 2494,
  "\u2581Auto": 2495,
  "\u2581groups": 2496,
  "\u2581mondiale": 2497,
  "\u2581modifica": 2498,
  "\u2581visita": 2499,
  "17": 2500,
  "\u2581speciale": 2501,
  "gu": 2502,
  "\u2581pass": 2503,
  "\u2581Ed": 2504,
  "\u2581month": 2505,
  "\u2581direct": 2506,
  "\u2581issues": 2507,
  "ito": 2508,
  "\u2581basic": 2509,
  "sia": 2510,
  "vin": 2511,
  "ud": 2512,
  "car": 2513,
  "nica": 2514,
  "ap": 2515,
  "ip": 2516,
  "bbia": 2517,
  "appa": 2518,
  "\u2581woman": 2519,
  "\u2581peso": 2520,
  "ov": 2521,
  "\u2581though": 2522,
  "\u2581rest": 2523,
  "\u2581modalit\u00e0": 2524,
  "\u2581lingua": 2525,
  "\u2581vorre": 2526,
  "\u2581attention": 2527,
  "\u2581themselves": 2528,
  "cur": 2529,
  "\u2581reviews": 2530,
  "\u2581giochi": 2531,
  "uh": 2532,
  "\u2581Mac": 2533,
  "\u2581(\"": 2534,
  "\u2581strong": 2535,
  "\u2581involved": 2536,
  "bar": 2537,
  "14": 2538,
  "\u2581parola": 2539,
  "\u2581section": 2540,
  "\u2581progress": 2541,
  "\u2581Gra": 2542,
  "nze": 2543,
  "\u2581buon": 2544,
  "\u2581reference": 2545,
  "\u2581received": 2546,
  "tare": 2547,
  "\u2581internal": 2548,
  "\u2581terzi": 2549,
  "\u2581relazioni": 2550,
  "\u2581approach": 2551,
  "\u2581asked": 2552,
  "\u2581Sc": 2553,
  "\u00a9": 2554,
  "\u2581bella": 2555,
  "\u2581purpose": 2556,
  "\u2581environmental": 2557,
  "our": 2558,
  "\u2581extra": 2559,
  "\u2581livelli": 2560,
  "\u2581presenti": 2561,
  "\u2581parts": 2562,
  "\u2581principio": 2563,
  "\u2581chiama": 2564,
  "\u2581massimo": 2565,
  "\u2581property": 2566,
  "\u2581guarda": 2567,
  "ek": 2568,
  "\u2581fully": 2569,
  "\u2581talking": 2570,
  "\u2581febbraio": 2571,
  "\u2581China": 2572,
  "12": 2573,
  "elle": 2574,
  "\u2581Conta": 2575,
  "trice": 2576,
  "\u2581program": 2577,
  "ane": 2578,
  "\u2581estate": 2579,
  "\u2581citizens": 2580,
  "\u2581modern": 2581,
  "od": 2582,
  "\u2581activity": 2583,
  "\u2581truth": 2584,
  "\u2581maximum": 2585,
  "\u2581Milano": 2586,
  "\u2581fase": 2587,
  "\u2581seguente": 2588,
  "\u2581peace": 2589,
  "\u2581locale": 2590,
  "\u2581Cal": 2591,
  "\u2581morning": 2592,
  "cci": 2593,
  "\u2581siete": 2594,
  "\u2581ready": 2595,
  "\u2581similar": 2596,
  "\u2581created": 2597,
  "\u2581cross": 2598,
  "\u2581completamente": 2599,
  "\u2581map": 2600,
  "\u2581Prima": 2601,
  "\u2581utenti": 2602,
  "\u2581code": 2603,
  "ming": 2604,
  "\u2581industrial": 2605,
  "\u2581usare": 2606,
  "\u2581office": 2607,
  "min": 2608,
  "\u2581stampa": 2609,
  "\u2581pochi": 2610,
  "\u2581stanno": 2611,
  "\u2581sent": 2612,
  "\u2581EC": 2613,
  "\u2581Real": 2614,
  "\u2581Economic": 2615,
  "\u2581National": 2616,
  "\u2581esso": 2617,
  "\u2581responsabilit\u00e0": 2618,
  "\u2581costruzione": 2619,
  "\u2581500": 2620,
  "\u2581applicable": 2621,
  "\u258170": 2622,
  "\u2581comunque": 2623,
  "\u2581tal": 2624,
  "\u2581lavoratori": 2625,
  "\u2581000": 2626,
  "\u2581impact": 2627,
  "\u2581inside": 2628,
  "15": 2629,
  "\u2581Total": 2630,
  "don": 2631,
  "\u2581Super": 2632,
  "\u2581caratteristiche": 2633,
  "\u2581authority": 2634,
  "house": 2635,
  "tico": 2636,
  "\u2581heard": 2637,
  "\u2581spese": 2638,
  "\u2581tri": 2639,
  "\u2581Cap": 2640,
  "\u2581brought": 2641,
  "\u2581improve": 2642,
  "\u2581dentro": 2643,
  "\u2581self": 2644,
  "\u2581questions": 2645,
  "\u2581quite": 2646,
  "\u2581collection": 2647,
  "\u2581bra": 2648,
  "tivo": 2649,
  "zie": 2650,
  "\u2581central": 2651,
  "7": 2652,
  "\u2581colore": 2653,
  "\u2581scuola": 2654,
  "\u2581reach": 2655,
  "\u2581Sam": 2656,
  "ED": 2657,
  "poli": 2658,
  "\u2581places": 2659,
  "ms": 2660,
  "\u2581responsible": 2661,
  "\u2581multi": 2662,
  "\u2581team": 2663,
  "\u2581soldi": 2664,
  "\u2581Buon": 2665,
  "\u2581fornire": 2666,
  "\u2581secolo": 2667,
  "\u2581facile": 2668,
  "\u2581August": 2669,
  "\u2581garden": 2670,
  "\u2581laid": 2671,
  "\u2581war": 2672,
  "mar": 2673,
  "ux": 2674,
  "\u2581immagini": 2675,
  "\u2581programmes": 2676,
  "\u2581Solo": 2677,
  "2,": 2678,
  "\u2581aspetti": 2679,
  "word": 2680,
  "\u2581Availability": 2681,
  "\u2581bambino": 2682,
  "\u2581aprile": 2683,
  "lay": 2684,
  "ultimo": 2685,
  "\u2581Alber": 2686,
  "lin": 2687,
  "\u2581que": 2688,
  "uri": 2689,
  "\u2581naturale": 2690,
  "\u2581presenza": 2691,
  "\u2581mente": 2692,
  "\u2581covered": 2693,
  "\u2581Am": 2694,
  "\u2581internazionali": 2695,
  "11": 2696,
  "\u2581gave": 2697,
  "\u2581Du": 2698,
  "net": 2699,
  "\u2581simple": 2700,
  "\u2581utilizzare": 2701,
  "tt": 2702,
  "\u2581ar": 2703,
  "\u2581phone": 2704,
  "\u2581europei": 2705,
  "\u2581proposed": 2706,
  "\u2581cerca": 2707,
  "\u2581Secondo": 2708,
  "\u2581cut": 2709,
  "\u2581Ke": 2710,
  "\u2581parties": 2711,
  "anna": 2712,
  "\u2581stessi": 2713,
  "\u2581atti": 2714,
  "eu": 2715,
  "\u2581pagamento": 2716,
  "\u2581Gall": 2717,
  "\u2581sola": 2718,
  "\u2581greater": 2719,
  "cri": 2720,
  "volo": 2721,
  "\u2581earth": 2722,
  "\u2581Having": 2723,
  "\u2581creazione": 2724,
  "ordine": 2725,
  "ffa": 2726,
  "ggia": 2727,
  "\u2581strumento": 2728,
  "\u2581voce": 2729,
  "\u2581investment": 2730,
  "\u2581early": 2731,
  "\u2581Saint": 2732,
  "\u2581potere": 2733,
  "\u2581Pen": 2734,
  "ong": 2735,
  "\u2581link": 2736,
  "\u00ed": 2737,
  "\u2581knowledge": 2738,
  "\u2581fre": 2739,
  "\u2581policies": 2740,
  "tiva": 2741,
  "\u2581daily": 2742,
  "\u2581German": 2743,
  "\u2581primi": 2744,
  "\u2581rates": 2745,
  "\u2581interesse": 2746,
  "\u2581act": 2747,
  "\u2581privato": 2748,
  "\u2581informazione": 2749,
  "\u25814.": 2750,
  "\u2581workers": 2751,
  "\u2581chiede": 2752,
  "\u2581300": 2753,
  "40": 2754,
  "\u2581valori": 2755,
  "dia": 2756,
  "\u258135": 2757,
  "\u2581weight": 2758,
  "lf": 2759,
  "\u2581libera": 2760,
  "mper": 2761,
  "\u2581receive": 2762,
  "\u2581terzo": 2763,
  "\u2581whose": 2764,
  "\u2581segue": 2765,
  "\u2581moglie": 2766,
  "\u2581news": 2767,
  "\u2581Spa": 2768,
  "\u2581appar": 2769,
  "see": 2770,
  "ute": 2771,
  "\u2581varie": 2772,
  "ante": 2773,
  "\u2581thank": 2774,
  "\u2581lead": 2775,
  "\u2581himself": 2776,
  "\u2581gran": 2777,
  "\u2581features": 2778,
  "\u2581oggetto": 2779,
  "\u2581accesso": 2780,
  "\u2581mobile": 2781,
  "\u2581commercio": 2782,
  "hu": 2783,
  "\u2581Trans": 2784,
  "uff": 2785,
  "\u25812003": 2786,
  "\u2581six": 2787,
  "bel": 2788,
  "\u2581steel": 2789,
  "\u2581review": 2790,
  "\u2581kitchen": 2791,
  "vole": 2792,
  "\u2581serious": 2793,
  "\u2581sole": 2794,
  "\u2581sun": 2795,
  "\u258145": 2796,
  "\u2581crede": 2797,
  "\u2581etc": 2798,
  "\u2581ferma": 2799,
  "ssima": 2800,
  "sugli": 2801,
  "\u2581below": 2802,
  "\u2581Verifica": 2803,
  "if": 2804,
  "\u2581aggiunto": 2805,
  "\u2581presenta": 2806,
  "\u2581mercati": 2807,
  "\u2581breve": 2808,
  "\u2581alone": 2809,
  "\u2581rappresenta": 2810,
  "\u2581Ci\u00f2": 2811,
  "\u2581messaggio": 2812,
  "dis": 2813,
  "\u2581Paris": 2814,
  "\u2581wife": 2815,
  "\u2581standards": 2816,
  "\u2581pubblica": 2817,
  "\u2581materiale": 2818,
  "80": 2819,
  "elli": 2820,
  "\u2581started": 2821,
  "\u2581sense": 2822,
  "iv": 2823,
  "\u2581evitare": 2824,
  "ble": 2825,
  "\u2581abbastanza": 2826,
  "post": 2827,
  "app": 2828,
  "\u2581stile": 2829,
  "\u00e1": 2830,
  "\u2581active": 2831,
  "\u2581capacity": 2832,
  "load": 2833,
  "\u2581mani": 2834,
  "\u00ae": 2835,
  "\u2581popolazione": 2836,
  "\u2581radio": 2837,
  "\u2581grati": 2838,
  "\u2581procedures": 2839,
  "rate": 2840,
  "\u2581decided": 2841,
  "99": 2842,
  "\u2581s\u00ec": 2843,
  "\u2581ste": 2844,
  "\u2581av": 2845,
  "\u2581recent": 2846,
  "res": 2847,
  "ities": 2848,
  "ear": 2849,
  "\u2581series": 2850,
  "\u2581hair": 2851,
  "sch": 2852,
  "\u2581Information": 2853,
  "\u2581Spain": 2854,
  "\u2581Gia": 2855,
  "\u2581lost": 2856,
  "nne": 2857,
  "\u2581Ko": 2858,
  "\u2581version": 2859,
  "\u00ec": 2860,
  "\u2581sangue": 2861,
  "\u2581enter": 2862,
  "\u2581ECU": 2863,
  "\u2581agricultural": 2864,
  "\u2581economici": 2865,
  "\u2581View": 2866,
  "\u2581wait": 2867,
  "\u25812002": 2868,
  "\u2581versione": 2869,
  "\u2581verit\u00e0": 2870,
  "lor": 2871,
  "\u2581Mrs": 2872,
  "Le": 2873,
  "ide": 2874,
  "\u2581Airport": 2875,
  "\u2581carta": 2876,
  "Fi": 2877,
  "ub": 2878,
  "ft": 2879,
  "\u2581disse": 2880,
  "\u2581inferiore": 2881,
  "\u2581poich\u00e9": 2882,
  "\u2581Ogni": 2883,
  "\u2581occhi": 2884,
  "her": 2885,
  "er\u00e0": 2886,
  "ami": 2887,
  "\u2581download": 2888,
  "\u2581proprie": 2889,
  "\u2581fruit": 2890,
  "area": 2891,
  "\u2581Gar": 2892,
  "\u2581difficult": 2893,
  "\u2581partecipazione": 2894,
  "\u2581benefit": 2895,
  "\u2581pan": 2896,
  "Ma": 2897,
  "\u2581higher": 2898,
  "\u2581Sal": 2899,
  "\u2581cover": 2900,
  "\u2581cercando": 2901,
  "\u2581kg": 2902,
  "dro": 2903,
  "\u2581piccola": 2904,
  "\u2581First": 2905,
  "\u2581weeks": 2906,
  "\u2581choice": 2907,
  "non": 2908,
  "\u2581essential": 2909,
  "\u2581riduzione": 2910,
  "\u2581structure": 2911,
  "\u2581Hu": 2912,
  "\u2581Post": 2913,
  "\u2581save": 2914,
  "\u2581aspetta": 2915,
  "\u2581existing": 2916,
  "\u25812001": 2917,
  "\u2581concorrenza": 2918,
  "\u2581contenuto": 2919,
  "\u2581funzionamento": 2920,
  "lie": 2921,
  "\u2581Tutto": 2922,
  "\u2581risultato": 2923,
  "\u2581regions": 2924,
  "ama": 2925,
  "\u2581practice": 2926,
  "des": 2927,
  "\u2581users": 2928,
  "\u2581giustizia": 2929,
  "rebbe": 2930,
  "\u2581tempi": 2931,
  "\u2581investimenti": 2932,
  "ring": 2933,
  "\u2581coloro": 2934,
  "\u2581fondo": 2935,
  "\u2581costo": 2936,
  "\u2581Sha": 2937,
  "\u2581everyone": 2938,
  "\u2581message": 2939,
  "\u2581fondi": 2940,
  "attivit\u00e0": 2941,
  "\u2581allows": 2942,
  "\u2581forward": 2943,
  "\u2581considerando": 2944,
  "\u2581Za": 2945,
  "\u2581choose": 2946,
  "\u2581location": 2947,
  "\u2581durata": 2948,
  "\u2581Her": 2949,
  "\u2581Central": 2950,
  "18": 2951,
  "\u2581red": 2952,
  "ago": 2953,
  "\u2581Spagna": 2954,
  "\u2581potential": 2955,
  "\u2581comunit\u00e0": 2956,
  "\u2581Casa": 2957,
  "\u2581staff": 2958,
  "\u2581Mont": 2959,
  "\u2581domande": 2960,
  "\u2581List": 2961,
  "\u2581transfer": 2962,
  "\u2581Number": 2963,
  "\u2581ver": 2964,
  "\u2581strategia": 2965,
  "\u2581proposals": 2966,
  "\u2581esperienza": 2967,
  "amento": 2968,
  "\u2581stand": 2969,
  "\u2581pelle": 2970,
  "rant": 2971,
  "\u2581contesto": 2972,
  "\u2581comitato": 2973,
  "\u2581operation": 2974,
  "28": 2975,
  "\u2581risoluzione": 2976,
  "\u2581des": 2977,
  "\u2581population": 2978,
  "\u2581Bra": 2979,
  "\u2581avanti": 2980,
  "\u2581mettere": 2981,
  "\u2581importance": 2982,
  "wer": 2983,
  "\u2581Micro": 2984,
  "\u2581ordine": 2985,
  "ney": 2986,
  "rra": 2987,
  "enti": 2988,
  "\u2581style": 2989,
  "\u2581egli": 2990,
  "\u2581Gre": 2991,
  "\u2581libert\u00e0": 2992,
  "\u2581Unito": 2993,
  "\u2581negozi": 2994,
  "\u2581continua": 2995,
  "\u2581conformit\u00e0": 2996,
  "iz": 2997,
  "ham": 2998,
  "\u2581propri": 2999,
  "\u2581positive": 3000,
  "\u2581cos": 3001,
  "este": 3002,
  "\u2581(3)": 3003,
  "\u2581opportunity": 3004,
  "\u2581Ser": 3005,
  "bus": 3006,
  "\u2581faith": 3007,
  "ori": 3008,
  "\u2581Servizi": 3009,
  "oc": 3010,
  "\u2581Questi": 3011,
  "\u2581setting": 3012,
  "time": 3013,
  "\u2581beginning": 3014,
  "\u2581consider": 3015,
  "mmer": 3016,
  "\u2581chiesto": 3017,
  "\u2581Vo": 3018,
  "\u2581increased": 3019,
  "\u2581Gio": 3020,
  "\u2581ones": 3021,
  "\u2581attenzione": 3022,
  "ally": 3023,
  "\u2581Char": 3024,
  "las": 3025,
  "\u2581Ai": 3026,
  "\u2581produce": 3027,
  "\u2581vivere": 3028,
  "\u2581principi": 3029,
  "ization": 3030,
  "\u2581libro": 3031,
  "ld": 3032,
  "ill": 3033,
  "\u2581communication": 3034,
  "\u2581context": 3035,
  "\u2581Certo": 3036,
  "\u2581Av": 3037,
  "\u2581cre": 3038,
  "\u2581fe": 3039,
  "cent": 3040,
  "cus": 3041,
  "\u2581machine": 3042,
  "\u2581operazioni": 3043,
  "pass": 3044,
  "\u2581Russia": 3045,
  "\u2581professionale": 3046,
  "\u2581cha": 3047,
  "\u2581games": 3048,
  "\u2581Bal": 3049,
  "\u2581Zo": 3050,
  "fort": 3051,
  "\u2581relating": 3052,
  "\u2581culture": 3053,
  "?\"": 3054,
  "\u2581lotta": 3055,
  "ual": 3056,
  "\u2581mor": 3057,
  "tal": 3058,
  "About": 3059,
  "vere": 3060,
  "\u2581sezione": 3061,
  "\u2581cultural": 3062,
  "\u2581published": 3063,
  "lega": 3064,
  "els": 3065,
  "\u2581arriva": 3066,
  "enza": 3067,
  "\u2581ground": 3068,
  "tevi": 3069,
  "nes": 3070,
  "\u2581settimane": 3071,
  "\u2581exchange": 3072,
  "\u2581developed": 3073,
  "\u2581Peter": 3074,
  "\u2581buy": 3075,
  "\u2581watch": 3076,
  "\u2581develop": 3077,
  "\u2581principle": 3078,
  "\u2581amended": 3079,
  "\u2581objectives": 3080,
  "\u2581alcun": 3081,
  "\u2581paid": 3082,
  "\u2581safe": 3083,
  "\u2581Mor": 3084,
  "\u2581David": 3085,
  "\u2581Price": 3086,
  "\u2581term": 3087,
  "\u2581ml": 3088,
  "ot": 3089,
  "ando": 3090,
  "jo": 3091,
  "\u2581qua": 3092,
  "\u2581vacanza": 3093,
  "\u2581mal": 3094,
  "obiettivo": 3095,
  "idea": 3096,
  "/10": 3097,
  "\u2581stare": 3098,
  "nder": 3099,
  "\u2581favor": 3100,
  "\u2581deciso": 3101,
  "az": 3102,
  "\u2581hotels": 3103,
  "\u2581civil": 3104,
  "\u2581quantit\u00e0": 3105,
  "\u2581basso": 3106,
  "\u2581send": 3107,
  "\u2581LA": 3108,
  "\u2581add": 3109,
  "\u2581debate": 3110,
  "posto": 3111,
  "\u2581Off": 3112,
  "\u2581unique": 3113,
  "\u2581happy": 3114,
  "zzato": 3115,
  "\u2581y": 3116,
  "\u2581VI": 3117,
  "\u2581lato": 3118,
  "\u2581nessun": 3119,
  "\u2581minimum": 3120,
  "\u2581West": 3121,
  "\u2581Sea": 3122,
  "nda": 3123,
  "\u2581Star": 3124,
  "\u2581gratuita": 3125,
  "\u2581member": 3126,
  "\u2581baby": 3127,
  "etti": 3128,
  "\u2581documenti": 3129,
  "\u2581venire": 3130,
  "\u2581capi": 3131,
  "\u2581IT": 3132,
  "\u2581professional": 3133,
  "gne": 3134,
  "\u2581stock": 3135,
  "\u2581contatto": 3136,
  "\u2581lives": 3137,
  "\u2581supply": 3138,
  "\u2581protect": 3139,
  "ding": 3140,
  "\u2581Ab": 3141,
  "otti": 3142,
  "\u2581late": 3143,
  "\u2581significant": 3144,
  "\u2581High": 3145,
  "ono": 3146,
  "\u2581News": 3147,
  "\u2581step": 3148,
  "\u2581popolo": 3149,
  "\u2581Har": 3150,
  "\u2581energia": 3151,
  "\u2581files": 3152,
  "\u2581seems": 3153,
  "\u2581purposes": 3154,
  "\u2581Jan": 3155,
  "\u2581comunitaria": 3156,
  "49": 3157,
  "45": 3158,
  "\u2581conoscenza": 3159,
  "\u2581Fran": 3160,
  "\u2581presto": 3161,
  "\u2581rende": 3162,
  "\u2581carattere": 3163,
  "\u2581tema": 3164,
  "fu": 3165,
  "\u2581entire": 3166,
  "\u2581pubblici": 3167,
  "\u2581Giovanni": 3168,
  "\u2581necessarie": 3169,
  "De": 3170,
  "70": 3171,
  "\u2581medico": 3172,
  "\u2581Descrizione": 3173,
  "\u2581famous": 3174,
  "\u2581image": 3175,
  "rata": 3176,
  "\u2581follows": 3177,
  "\u2581ragazza": 3178,
  "dd": 3179,
  "\u2581probably": 3180,
  "\u2581East": 3181,
  "\u2581Video": 3182,
  "\u2581Ce": 3183,
  "\u2581Product": 3184,
  "ario": 3185,
  "\u2581decide": 3186,
  "av": 3187,
  "\u2581Right": 3188,
  "\u2581Port": 3189,
  "gre": 3190,
  "\u2581Mu": 3191,
  "\u2581commerciali": 3192,
  "ating": 3193,
  "\u2581Bor": 3194,
  "\u2581breakfast": 3195,
  "edi": 3196,
  "ose": 3197,
  "27": 3198,
  "ING": 3199,
  "\u2581capitale": 3200,
  "\u2581tecnologia": 3201,
  "\u2581Van": 3202,
  "\u2581prevede": 3203,
  "val": 3204,
  "\u2581piuttosto": 3205,
  "\u2581behind": 3206,
  "stiamo": 3207,
  "\u2581applied": 3208,
  "\u2581decisioni": 3209,
  "\u2581credit": 3210,
  "\u2581precedente": 3211,
  "\u2581village": 3212,
  "\u2581produced": 3213,
  "\u2581reasons": 3214,
  "\u2581story": 3215,
  "\u2581figure": 3216,
  "\u2581Brussels": 3217,
  "ls": 3218,
  "\u2581specifiche": 3219,
  "\u2581superficie": 3220,
  "\u2581codice": 3221,
  "\u2581markets": 3222,
  "\u2581sci": 3223,
  "\u2581card": 3224,
  "\u2581Australia": 3225,
  "\u2581guarantee": 3226,
  "\u2581types": 3227,
  "\u2581sp": 3228,
  "\u2581Devo": 3229,
  "\u2581whom": 3230,
  "\u2581Aspett": 3231,
  "\u2581sentito": 3232,
  "\u2581vostri": 3233,
  "verse": 3234,
  "\u2581umani": 3235,
  "nis": 3236,
  "\u2581bianco": 3237,
  "\u2581commerciale": 3238,
  "\u2581Description": 3239,
  "\u2581potrebbero": 3240,
  "\u2581allowed": 3241,
  "\u2581wants": 3242,
  "\u2581wide": 3243,
  "\u2581Israel": 3244,
  "\u2581knew": 3245,
  "sen": 3246,
  "\u2581click": 3247,
  "\u2581AND": 3248,
  "\u2581hands": 3249,
  "\u2581animals": 3250,
  "\u2581accordi": 3251,
  "\u2581completa": 3252,
  "verti": 3253,
  "\u2581Since": 3254,
  "\u2581build": 3255,
  "\u2581difficolt\u00e0": 3256,
  "13": 3257,
  "ast": 3258,
  "vis": 3259,
  "\u2581Have": 3260,
  "\u2581Last": 3261,
  "\u2581tecnica": 3262,
  "\u2581boy": 3263,
  "avver": 3264,
  "\u2581door": 3265,
  "\u2581documento": 3266,
  "\u2581Marco": 3267,
  "\u2581massima": 3268,
  "\u2581piccole": 3269,
  "pan": 3270,
  "attuazione": 3271,
  "\u2581pratica": 3272,
  "\u2581cro": 3273,
  "rk": 3274,
  "\u2581verde": 3275,
  "\u2581crisi": 3276,
  "\u2581Pri": 3277,
  "ens": 3278,
  "No": 3279,
  "\u2581tecniche": 3280,
  "\u2581na": 3281,
  "ffe": 3282,
  "\u2581consumatori": 3283,
  "bbe": 3284,
  "\u2581ch": 3285,
  "\u2581connection": 3286,
  "shi": 3287,
  "\u2581hot": 3288,
  "\u2581ospiti": 3289,
  "ator": 3290,
  "\u2581assistance": 3291,
  "red": 3292,
  "\u2581analysis": 3293,
  "\u2581merci": 3294,
  "\u2581competent": 3295,
  "\u2581Altri": 3296,
  "\u2581across": 3297,
  "\u2581utilizzati": 3298,
  "\u2581mappa": 3299,
  "Al": 3300,
  "\u2581Down": 3301,
  "\u2581finanziario": 3302,
  "ction": 3303,
  "\u2581fo": 3304,
  "\u2581confronti": 3305,
  "\u2581ridurre": 3306,
  "\u2581class": 3307,
  "39": 3308,
  "fri": 3309,
  "\u2581fight": 3310,
  "ngel": 3311,
  "\u2581bio": 3312,
  "\u2581scritto": 3313,
  "\u2581piccoli": 3314,
  "90": 3315,
  "\u2581bro": 3316,
  "\u2581Bruxelles": 3317,
  "\u2581payment": 3318,
  "\u2581giro": 3319,
  "ucci": 3320,
  "\u2581signore": 3321,
  "\u2581facilities": 3322,
  "\u2581Holy": 3323,
  "\u2581includes": 3324,
  "esi": 3325,
  "rato": 3326,
  "lon": 3327,
  "\u2581aziende": 3328,
  "ix": 3329,
  "rry": 3330,
  "\u2581Father": 3331,
  "pol": 3332,
  "\u2581forme": 3333,
  "\u2581Cu": 3334,
  "\u2581Red": 3335,
  "\u2581componenti": 3336,
  "\u2581community": 3337,
  "\u2581esigenze": 3338,
  "oro": 3339,
  "LL": 3340,
  "\u2581quote": 3341,
  "ame": 3342,
  "\u2581Service": 3343,
  "\u2581spiaggia": 3344,
  "\u2581Canada": 3345,
  "auto": 3346,
  "\u2581foreign": 3347,
  "\u2581Ris": 3348,
  "vrei": 3349,
  "\u2581terr": 3350,
  "\u2581istituzioni": 3351,
  "col": 3352,
  "Co": 3353,
  "cle": 3354,
  "\u2581cultura": 3355,
  "\u2581equipped": 3356,
  "\u2581sera": 3357,
  "\u2581mette": 3358,
  "\u2581Venezia": 3359,
  "ash": 3360,
  "\u2581Cos\u00ec": 3361,
  "\u2581became": 3362,
  "ites": 3363,
  "tato": 3364,
  "tamente": 3365,
  "tazione": 3366,
  "\u2581dimensioni": 3367,
  "\u2581doctor": 3368,
  "\u2581throughout": 3369,
  "\u2581medio": 3370,
  "\u2581answer": 3371,
  "\u2581Eli": 3372,
  "\u2581lista": 3373,
  "\u2581establishing": 3374,
  "\u2581famos": 3375,
  "\u2581sport": 3376,
  "\u2581conformemente": 3377,
  "\u2581airport": 3378,
  "\u2581capire": 3379,
  "lt": 3380,
  "\u2581presented": 3381,
  "edizione": 3382,
  "\u2581actions": 3383,
  "\u2581speak": 3384,
  "\u2581francese": 3385,
  "\u2581eyes": 3386,
  "tar": 3387,
  "\u2581anyone": 3388,
  "LE": 3389,
  "over": 3390,
  "\u2581dovre": 3391,
  "\u2581Roman": 3392,
  "cro": 3393,
  "term": 3394,
  "\u2581lavorare": 3395,
  "spi": 3396,
  "\u2581regards": 3397,
  "\u2581messo": 3398,
  "\u2581limited": 3399,
  "\u2581criteri": 3400,
  "aiuto": 3401,
  "\u2581shows": 3402,
  "\u2581Informazioni": 3403,
  "\u258132": 3404,
  "\u2581rischi": 3405,
  "ssero": 3406,
  "\u2581potuto": 3407,
  "\u2581vera": 3408,
  "\u2581portare": 3409,
  "\u25811999": 3410,
  "tes": 3411,
  "\u2581metodo": 3412,
  "\u2581territory": 3413,
  "Com": 3414,
  "\u2581excellent": 3415,
  "ship": 3416,
  "\u2581Credo": 3417,
  "ara": 3418,
  "mel": 3419,
  "\u2581holiday": 3420,
  "21": 3421,
  "\u2581micro": 3422,
  "accesso": 3423,
  "\u2581status": 3424,
  "\u2581maybe": 3425,
  "\u2581produttori": 3426,
  "rows": 3427,
  "\u2581%": 3428,
  "\u2581mass": 3429,
  "\u2581torna": 3430,
  "\u2581conosce": 3431,
  "\u2581COM": 3432,
  "\u2581currently": 3433,
  "ffer": 3434,
  "\u2581finale": 3435,
  "OK": 3436,
  "\u2581150": 3437,
  "\u2581stelle": 3438,
  "\u2581easily": 3439,
  "\u2581item": 3440,
  "energia": 3441,
  "\u2581davanti": 3442,
  "\u2581mezzi": 3443,
  "raz": 3444,
  "ated": 3445,
  "\u2581collaborazione": 3446,
  "\u2581economy": 3447,
  "\u2581Dov": 3448,
  "\u2581Paesi": 3449,
  "\u2581Qual": 3450,
  "\u2581Jack": 3451,
  "\u2581studies": 3452,
  "\u2581Photo": 3453,
  "\u2581commercial": 3454,
  "22": 3455,
  "\u2581church": 3456,
  "mbi": 3457,
  "\u2581gia": 3458,
  "\u2581myself": 3459,
  "\u2581resolution": 3460,
  "otto": 3461,
  "mbo": 3462,
  "\u2581conseguenza": 3463,
  "\u2581polizia": 3464,
  "\u2581buildings": 3465,
  "\u2581document": 3466,
  "\u2581origin": 3467,
  "\u2581Bank": 3468,
  "\u2581waste": 3469,
  "\u2581forms": 3470,
  "\u2581requisiti": 3471,
  "\u25814,": 3472,
  "\u2581situato": 3473,
  "\u2581ideale": 3474,
  "\u2581penso": 3475,
  "\u2581hold": 3476,
  "\u2581adottato": 3477,
  "\u2581effetto": 3478,
  "\u2581movement": 3479,
  "ake": 3480,
  "\u2581organizzazioni": 3481,
  "\u2581Comp": 3482,
  "\u2581salva": 3483,
  "\u2581portato": 3484,
  "\u2581criteria": 3485,
  "\u2581traditional": 3486,
  "\u2581Anti": 3487,
  "\u2581green": 3488,
  "\u2581opportuno": 3489,
  "gal": 3490,
  "\u2581values": 3491,
  "\u2581giving": 3492,
  "\u2581official": 3493,
  "\u2581completely": 3494,
  "ene": 3495,
  "\u2581London": 3496,
  "ib": 3497,
  "\u2581questioni": 3498,
  "\u2581ragazzo": 3499,
  "\u2581sir": 3500,
  "\u2581tue": 3501,
  "\u2581trust": 3502,
  "\u2581responsibility": 3503,
  "\u2581IP": 3504,
  "colo": 3505,
  "\u2581contiene": 3506,
  "\u2581basta": 3507,
  "\u2581user": 3508,
  "\u2581decisions": 3509,
  "mato": 3510,
  "\u2581Cat": 3511,
  "dra": 3512,
  "\u2581server": 3513,
  "etta": 3514,
  "\u2581views": 3515,
  "\u2581Pan": 3516,
  "mini": 3517,
  "\u2581belli": 3518,
  "\u2581aumento": 3519,
  "mor": 3520,
  "\u2581stage": 3521,
  "\u2581North": 3522,
  "tali": 3523,
  "atore": 3524,
  "\u2581gra": 3525,
  "\u2581shown": 3526,
  "\u2581goes": 3527,
  "\u2581interessi": 3528,
  "del": 3529,
  "\u2581clean": 3530,
  "\u2581vote": 3531,
  "\u2581giardino": 3532,
  "ever": 3533,
  "\u2581consente": 3534,
  "\u2581assessment": 3535,
  "\u2581USA": 3536,
  "\u25815.": 3537,
  "\u2581presentato": 3538,
  "\u2581considerazione": 3539,
  "\u2581veramente": 3540,
  "\u2581mie": 3541,
  "BAR": 3542,
  "\u2581pressure": 3543,
  "\u2581born": 3544,
  "\u2581famiglie": 3545,
  "\u2581verr\u00e0": 3546,
  "\u2581atto": 3547,
  "26": 3548,
  "\u2581operatori": 3549,
  "\u2581starting": 3550,
  "\u2581l\u00ec": 3551,
  "\u2581round": 3552,
  "\u2581learn": 3553,
  "\u2581fishing": 3554,
  "\u2581ricevuto": 3555,
  "\u2581Take": 3556,
  "\u2581agree": 3557,
  "32": 3558,
  "\u2581Nord": 3559,
  "\u2581ga": 3560,
  "\u2581responsabile": 3561,
  "ez": 3562,
  "\u2581thinking": 3563,
  "60": 3564,
  "\u2581uses": 3565,
  "\u2581opera": 3566,
  "\u2581splen": 3567,
  "informazione": 3568,
  "\u2581lascia": 3569,
  "aggio": 3570,
  "\u2581mission": 3571,
  "its": 3572,
  "\u2581utilizzato": 3573,
  "\u2581(1": 3574,
  "\u2581gives": 3575,
  "\u2581Noi": 3576,
  "\u2581rendere": 3577,
  "\u2581charge": 3578,
  "\u2581contributo": 3579,
  "\u2581amore": 3580,
  "\u2581aperto": 3581,
  "\u2581Dur": 3582,
  "\u2581generali": 3583,
  "\u258148": 3584,
  "\u2581passo": 3585,
  "\u2581regionale": 3586,
  "\u2581marketing": 3587,
  "\u2581affinch\u00e9": 3588,
  "\u2581previous": 3589,
  "\u2581colori": 3590,
  "\u2581plant": 3591,
  "0.000": 3592,
  "\u2581Like": 3593,
  "\u2581IV": 3594,
  "\u2581100%": 3595,
  "ssu": 3596,
  "\u2581promuovere": 3597,
  "\u2581ideal": 3598,
  "\u2581fatta": 3599,
  "\u2581reduce": 3600,
  "Pro": 3601,
  "\u2581cari": 3602,
  "\u2581strutture": 3603,
  "\u258136": 3604,
  "\u2581creation": 3605,
  "\u258175": 3606,
  "\u2581equal": 3607,
  "\u2581servi": 3608,
  "\u2581Br": 3609,
  "\u2581Special": 3610,
  "\u2581sc": 3611,
  "\u2581finanziari": 3612,
  "\u2581ways": 3613,
  "sy": 3614,
  "\u2581u": 3615,
  "\u2581pen": 3616,
  "\u2581unit\u00e0": 3617,
  "\u2581Test": 3618,
  "\u2581civile": 3619,
  "\u2581mini": 3620,
  "\u2581strategy": 3621,
  "\u2581War": 3622,
  "\u2581libero": 3623,
  "\u2581occasione": 3624,
  "ici": 3625,
  "att": 3626,
  "\u2581Fra": 3627,
  "\u2581brother": 3628,
  "\u2581credito": 3629,
  "bilit\u00e0": 3630,
  "\u2581granted": 3631,
  "\u2581discussione": 3632,
  "iano": 3633,
  "\u2581University": 3634,
  "\u2581Vorre": 3635,
  "\u2581Bru": 3636,
  "\u2581ulteriori": 3637,
  "\u2581instruments": 3638,
  "\u2581Kar": 3639,
  "cor": 3640,
  "\u2581paper": 3641,
  "tis": 3642,
  "\u2581Im": 3643,
  "GU": 3644,
  "\u2581linee": 3645,
  "\u2581Centre": 3646,
  "ons": 3647,
  "\u2581contains": 3648,
  "carica": 3649,
  "\u2581vino": 3650,
  "\u2581elements": 3651,
  "\u2581et\u00e0": 3652,
  "Pa": 3653,
  "\u2581Great": 3654,
  "\u2581pieno": 3655,
  "\u2581sex": 3656,
  "\u2581particolarmente": 3657,
  "\u2581simili": 3658,
  "\")": 3659,
  "\u2581sala": 3660,
  "\u2581Martin": 3661,
  "\u2581potre": 3662,
  "\u2581thereof": 3663,
  "gas": 3664,
  "\u2581facilmente": 3665,
  "RE": 3666,
  "\u2581resto": 3667,
  "\u2581killed": 3668,
  "\u2581construction": 3669,
  "\u2581spirit": 3670,
  "\u2581attualmente": 3671,
  "\u2581Men": 3672,
  "\u2581external": 3673,
  "\u2581pensare": 3674,
  "\u2581globale": 3675,
  "\u2581abitanti": 3676,
  "\u2581dunque": 3677,
  "\u2581Milan": 3678,
  "\u2581hour": 3679,
  "\u2581regarding": 3680,
  "\u2581simply": 3681,
  "\u2581documents": 3682,
  "ct": 3683,
  "\u2581chiamato": 3684,
  "fetto": 3685,
  "\u2581distanza": 3686,
  "\u2581prego": 3687,
  "autorit\u00e0": 3688,
  "\u2581operating": 3689,
  "nale": 3690,
  "cce": 3691,
  "\u2581tecnologie": 3692,
  "ations": 3693,
  "\u2581possibili": 3694,
  "\u2581stazione": 3695,
  "\u2581semplicemente": 3696,
  "\u2581People": 3697,
  "\u2581nota": 3698,
  "ppe": 3699,
  "\u2581global": 3700,
  "\u2581chiave": 3701,
  "\u2581port": 3702,
  "\u2581animal": 3703,
  "esperienza": 3704,
  "\u2581soggetti": 3705,
  "\u2581pur": 3706,
  "\u2581finanziamento": 3707,
  "35": 3708,
  "\u2581Black": 3709,
  "\u2581happen": 3710,
  "\u00f9": 3711,
  "mon": 3712,
  "\u2581opere": 3713,
  "ves": 3714,
  "\u2581guide": 3715,
  "\u2581UN": 3716,
  "\u2581sign": 3717,
  "'.": 3718,
  "\u2581eat": 3719,
  "It": 3720,
  "\u2581camp": 3721,
  "\u2581maniera": 3722,
  "bre": 3723,
  "\u2581condition": 3724,
  "\u2581tele": 3725,
  "\u2581couple": 3726,
  "\u2581benefits": 3727,
  "\u2581naturali": 3728,
  "board": 3729,
  "\u2581appartamenti": 3730,
  "nna": 3731,
  "\u2581fish": 3732,
  "\u2581spirito": 3733,
  "\u2581Posso": 3734,
  "han": 3735,
  "egli": 3736,
  "\u2581bodies": 3737,
  "\u2581velocit\u00e0": 3738,
  "\u2581classe": 3739,
  "ag": 3740,
  "\u2581reale": 3741,
  "\u2581unit": 3742,
  "\u2581principles": 3743,
  "leg": 3744,
  "\u2581square": 3745,
  "it\u00e0": 3746,
  "mpa": 3747,
  "\u2581direzione": 3748,
  "\u2581station": 3749,
  "cche": 3750,
  "\u2581DELL": 3751,
  "\u2581telefono": 3752,
  "\u2581Tale": 3753,
  "\u2581freedom": 3754,
  "\u2581source": 3755,
  "\u2581Salv": 3756,
  "\u2581farm": 3757,
  "\u2581Even": 3758,
  "!\"": 3759,
  "\u2581Venice": 3760,
  "\u2581evidence": 3761,
  "\u2581fast": 3762,
  "\u2581migliaia": 3763,
  "We": 3764,
  "\u2581fair": 3765,
  "\u2581avoid": 3766,
  "\u2581clearly": 3767,
  "\u2581Mal": 3768,
  "hen": 3769,
  "\u2581scegliere": 3770,
  "\u2581tardi": 3771,
  "\u2581maggiori": 3772,
  "\u2581applications": 3773,
  "\u2581usato": 3774,
  "\u2581normal": 3775,
  "ray": 3776,
  "\u2581remain": 3777,
  "\u2581regole": 3778,
  "\u2581temperature": 3779,
  ".000": 3780,
  "Mo": 3781,
  "\u2581extension": 3782,
  "\u2581quota": 3783,
  "organizzazione": 3784,
  "ping": 3785,
  "\u2581visitatori": 3786,
  "\u2581giornata": 3787,
  "\u2581defined": 3788,
  "\u2581Ireland": 3789,
  "IN": 3790,
  "scri": 3791,
  "\u2581Review": 3792,
  "\u2581wall": 3793,
  "\u2581operations": 3794,
  "Po": 3795,
  "\u2581storico": 3796,
  "uch": 3797,
  "nico": 3798,
  "\u2581Em": 3799,
  "\u2581Sara": 3800,
  "\u2581nor": 3801,
  "\u2581intended": 3802,
  "\u2581sal": 3803,
  "\u2581objective": 3804,
  "\u2581Ve": 3805,
  "\u2581previsto": 3806,
  "\u2581brand": 3807,
  "\u2581prossimo": 3808,
  "\u2581chance": 3809,
  "\u2581mantenere": 3810,
  "\u2581immediately": 3811,
  "ath": 3812,
  "\u2581Es": 3813,
  "\u2581prime": 3814,
  "\u2581bello": 3815,
  "\u2581Every": 3816,
  "\u2581record": 3817,
  "Ca": 3818,
  "\u2581behalf": 3819,
  "\u2581grave": 3820,
  "\u2581glass": 3821,
  "\u2581pretty": 3822,
  "\u2581spar": 3823,
  "\u2581lower": 3824,
  "essere": 3825,
  "\u25811992": 3826,
  "\u2581die": 3827,
  "\u2581Stra": 3828,
  "ical": 3829,
  "\u2581accept": 3830,
  "\u2581Aero": 3831,
  "\u2581booking": 3832,
  "\u2581chiesa": 3833,
  "\u2581hit": 3834,
  "\u2581agreements": 3835,
  "\u2581et": 3836,
  "\u2581sostanze": 3837,
  "\u2581fratello": 3838,
  "\u2581utilizza": 3839,
  "\u2581paura": 3840,
  "\u2581piacere": 3841,
  "\u2581finanziaria": 3842,
  "\u2581tasso": 3843,
  "\u2581Convention": 3844,
  "Per": 3845,
  "asse": 3846,
  "\u2581Green": 3847,
  "ette": 3848,
  "old": 3849,
  "\u2581court": 3850,
  "ville": 3851,
  "\u2581Min": 3852,
  "\u2581EN": 3853,
  "\u2581dettagli": 3854,
  "bu": 3855,
  "\u2581processing": 3856,
  "\u2581visualizza": 3857,
  "\u2581associated": 3858,
  "\u2581proposito": 3859,
  "\u2581entry": 3860,
  "glie": 3861,
  "\u2581approved": 3862,
  "grafia": 3863,
  "\u25811:": 3864,
  "\u2581annual": 3865,
  "\u2581supporto": 3866,
  "\u2581sud": 3867,
  "\u2581India": 3868,
  "\u2581faccio": 3869,
  "ike": 3870,
  "\u2581efficace": 3871,
  "\u2581Allo": 3872,
  "1,": 3873,
  "\u2581Due": 3874,
  "\u2581fatti": 3875,
  "bal": 3876,
  "\u2581]": 3877,
  "\u2581cercare": 3878,
  "\u2581Totale": 3879,
  "\u2581gone": 3880,
  "\u2581TO": 3881,
  "\u2581Cr": 3882,
  "ep": 3883,
  "\u2581passi": 3884,
  "\u2581vehicle": 3885,
  "ists": 3886,
  "ins": 3887,
  "lit\u00e0": 3888,
  "\u2581steps": 3889,
  "\u2581thousands": 3890,
  "rni": 3891,
  "\u2581presence": 3892,
  "\u2581piani": 3893,
  "\u2581compra": 3894,
  "\u2581chiaro": 3895,
  "\u2581promote": 3896,
  "\u2581Sol": 3897,
  "get": 3898,
  "\u2581email": 3899,
  "\u2581Ten": 3900,
  "trimoni": 3901,
  "\u2581relationship": 3902,
  "impresa": 3903,
  "\u2581funds": 3904,
  "\u2581administrative": 3905,
  "cker": 3906,
  "\u2581dispone": 3907,
  "uti": 3908,
  "off": 3909,
  "\u2581CO": 3910,
  "\u2581summer": 3911,
  "\u2581carica": 3912,
  "\u2581intende": 3913,
  "\u2581medi": 3914,
  "\u2581aree": 3915,
  "\u2581tornare": 3916,
  "\u2581leader": 3917,
  "\u2581Asia": 3918,
  "ets": 3919,
  "scher": 3920,
  "-11": 3921,
  "\u2581Poi": 3922,
  "economia": 3923,
  "\u2581modelli": 3924,
  "\u2581box": 3925,
  "\u2581medium": 3926,
  "hose": 3927,
  "\u2581motore": 3928,
  "uni": 3929,
  "\u2581board": 3930,
  "\u2581restaurant": 3931,
  "\u2581method": 3932,
  "\u2581j": 3933,
  "\u2581skin": 3934,
  "OS": 3935,
  "\u2581carry": 3936,
  "ather": 3937,
  "fast": 3938,
  "\u2581followed": 3939,
  "\u2581ricorda": 3940,
  "\u2581Wai": 3941,
  "\u2581aim": 3942,
  "\u2581achieve": 3943,
  "ID": 3944,
  "\u2581Uno": 3945,
  "ppi": 3946,
  "rme": 3947,
  "occupazione": 3948,
  "\u2581lunga": 3949,
  "\u2581vivo": 3950,
  "\u2581Break": 3951,
  "sur": 3952,
  "\u2581carte": 3953,
  "\u2581legislazione": 3954,
  "\u2581popular": 3955,
  "\u2581contribution": 3956,
  "ence": 3957,
  "low": 3958,
  "\u2581Prezzo": 3959,
  "\u2581rule": 3960,
  "75": 3961,
  "\u2581Cina": 3962,
  "mani": 3963,
  "\u2581Ph": 3964,
  "other": 3965,
  "\u2581entrare": 3966,
  "gar": 3967,
  "\u2581aiutare": 3968,
  "\u2581van": 3969,
  "\u2581ambiente": 3970,
  "\u2581signora": 3971,
  "\u2581reports": 3972,
  "\u2581garanzia": 3973,
  "\u2581campagna": 3974,
  "\u2581consumo": 3975,
  "\u2581funzioni": 3976,
  "\u2581dietro": 3977,
  "\u2581flight": 3978,
  "\u2581expenditure": 3979,
  "\u2581knows": 3980,
  "rge": 3981,
  "\u25812:": 3982,
  "44": 3983,
  "\u2581efforts": 3984,
  "\u2581Austria": 3985,
  "\u2581Tel": 3986,
  "\u2581desidera": 3987,
  "lare": 3988,
  "\u2581condizione": 3989,
  "\u2581promotion": 3990,
  "48": 3991,
  "\u2581dollari": 3992,
  "\u2581option": 3993,
  "\u2581[...]": 3994,
  "rch": 3995,
  "\u2581Paolo": 3996,
  "\u2581speciali": 3997,
  "\u2581prestazioni": 3998,
  "ecu": 3999,
  "culo": 4000,
  "\u2581occorre": 4001,
  "\u2581ancient": 4002,
  "\u2581realizzazione": 4003,
  "\u2581speed": 4004,
  "\u2581possibility": 4005,
  "\u2581morto": 4006,
  "ial": 4007,
  "\u2581avevo": 4008,
  "\u2581species": 4009,
  "\u2581overall": 4010,
  "\u2581Fin": 4011,
  "\u2581measure": 4012,
  "\u2581acque": 4013,
  "\u2581methods": 4014,
  "\u2581labour": 4015,
  "95": 4016,
  "\u2581chiedere": 4017,
  "\u2581iniziative": 4018,
  "\u2581potete": 4019,
  "\u2581tenere": 4020,
  "\u2581written": 4021,
  "\u2581scambio": 4022,
  "\u2581crea": 4023,
  "\u2581function": 4024,
  "\u2581applica": 4025,
  "\u2581fall": 4026,
  "\u2581exactly": 4027,
  "\u2581instrument": 4028,
  "\u2581mentioned": 4029,
  "\u2581numerosi": 4030,
  "\u2581trasporti": 4031,
  "47": 4032,
  "\u2581gamma": 4033,
  "eth": 4034,
  "ride": 4035,
  "\u2581article": 4036,
  "\u2581umana": 4037,
  "\u2581season": 4038,
  "\u2581Regolamento": 4039,
  "\u2581parking": 4040,
  "\u2581balance": 4041,
  "\u2581customers": 4042,
  "Italia": 4043,
  "\u2581Trov": 4044,
  "\u2581relations": 4045,
  "\u2581separate": 4046,
  "\u2581probabilmente": 4047,
  "\u2581police": 4048,
  "\u2581crisis": 4049,
  "zzazione": 4050,
  "\u2581gratuito": 4051,
  "della": 4052,
  "\u2581dichiarazione": 4053,
  "\u2581azione": 4054,
  "\u2581complex": 4055,
  "\u2581alberghi": 4056,
  "\u2581categoria": 4057,
  "\u2581joint": 4058,
  "\u2581amendments": 4059,
  "\u2581gioca": 4060,
  "ski": 4061,
  "46": 4062,
  "\u2581sposa": 4063,
  "\u2581genitori": 4064,
  "\u2581Card": 4065,
  "nn": 4066,
  "\u2581ritiene": 4067,
  "03": 4068,
  "\u2581vale": 4069,
  "\u2581tutela": 4070,
  "\u2581presentare": 4071,
  "\u2581avevano": 4072,
  "ee": 4073,
  "\u2581origine": 4074,
  "\u2581fresh": 4075,
  "Di": 4076,
  "\u2581alloggi": 4077,
  "\u2581definizione": 4078,
  "\u2581Oggi": 4079,
  "\u2581submitted": 4080,
  "\u2581birth": 4081,
  "\u2581met\u00e0": 4082,
  "\u2581Club": 4083,
  "\u2581ciascuno": 4084,
  "mont": 4085,
  "\u2581motivi": 4086,
  "\u2581Shipping": 4087,
  "\u2581interests": 4088,
  "inter": 4089,
  "\u2581esse": 4090,
  "\u2581cheap": 4091,
  "unica": 4092,
  "pen": 4093,
  "\u2581Gal": 4094,
  "\u2581White": 4095,
  "\u2581nord": 4096,
  "\u2581affrontare": 4097,
  "\u2581preoccupa": 4098,
  "ize": 4099,
  "\u2581modifiche": 4100,
  "\u2581sesso": 4101,
  "uta": 4102,
  "nzo": 4103,
  "Lo": 4104,
  "\u2581prevent": 4105,
  "AN": 4106,
  "\u2581Fil": 4107,
  "\u2581Ricerca": 4108,
  "vor": 4109,
  "\u2581Je": 4110,
  "55": 4111,
  "\u2581san": 4112,
  "mb": 4113,
  "une": 4114,
  "\u2581minute": 4115,
  "\u2581missione": 4116,
  "\u2581favour": 4117,
  "\u2581politico": 4118,
  "bis": 4119,
  "3,": 4120,
  "mere": 4121,
  "\u2581st": 4122,
  "rma": 4123,
  "\u2581reduced": 4124,
  "\u2581bis": 4125,
  "\u2581affari": 4126,
  "\u2581vanno": 4127,
  "\u2581arrivare": 4128,
  "\u2581reti": 4129,
  "\u2581UK": 4130,
  "\u2581monitoring": 4131,
  "\u258192": 4132,
  "\u2581pain": 4133,
  "\u2581shopping": 4134,
  "iber": 4135,
  "\u2581entrambi": 4136,
  "\u2581pressione": 4137,
  "late": 4138,
  "Se": 4139,
  "\u2581fondamentale": 4140,
  "36": 4141,
  "\u2581carico": 4142,
  "\u2581cio\u00e8": 4143,
  "\u2581shower": 4144,
  "\u2581fondamentali": 4145,
  "\u2581\u00b0": 4146,
  "\u2581esiste": 4147,
  "\u2581Padre": 4148,
  "\u2581break": 4149,
  "\u2581seem": 4150,
  "ax": 4151,
  "\u2581Ji": 4152,
  "\u2581interested": 4153,
  "\u2581surface": 4154,
  "cino": 4155,
  "\u2581stanza": 4156,
  "29": 4157,
  "\u2581dieci": 4158,
  "\u2581Marin": 4159,
  "23": 4160,
  "\u2581Report": 4161,
  "31": 4162,
  "\u2581rich": 4163,
  "\u2581instead": 4164,
  "\u2581foot": 4165,
  "\u2581listen": 4166,
  "FR": 4167,
  "\u2581solutions": 4168,
  "\u2581nessuna": 4169,
  "0,000": 4170,
  "\u2581Up": 4171,
  "\u2581umano": 4172,
  "\u2581simile": 4173,
  "\u2581vol": 4174,
  "dere": 4175,
  "\u2581diventare": 4176,
  "alazzo": 4177,
  "\u2581Press": 4178,
  "ngo": 4179,
  "\u2581voice": 4180,
  "porto": 4181,
  "\u2581portata": 4182,
  "\u2581fattori": 4183,
  "\u2581minimo": 4184,
  "\u2581Services": 4185,
  "\u2581possano": 4186,
  "\u2581alcuna": 4187,
  "-13": 4188,
  "\u2581Sh": 4189,
  "01": 4190,
  "\u2581dialogo": 4191,
  "\u2581comfort": 4192,
  "\u2581images": 4193,
  "cam": 4194,
  "gh": 4195,
  "\u2581providing": 4196,
  "\u2581tor": 4197,
  "box": 4198,
  "\u2581comprende": 4199,
  "\u2581Queste": 4200,
  "\u2581Only": 4201,
  "rl": 4202,
  "\u2581stava": 4203,
  "\u2581bru": 4204,
  "EL": 4205,
  "lio": 4206,
  "\u2581soluzioni": 4207,
  "\u2581vive": 4208,
  "\u2581regulation": 4209,
  "\u2581fixed": 4210,
  "\u2581nero": 4211,
  "oo": 4212,
  "cel": 4213,
  "\u2581aria": 4214,
  "\u2581taste": 4215,
  "\u2581dedicated": 4216,
  "\u2581lines": 4217,
  "tazioni": 4218,
  "cer": 4219,
  "\u2581Articles": 4220,
  "\u2581privacy": 4221,
  "\u2581flat": 4222,
  "\u2581disease": 4223,
  "\u2581island": 4224,
  "33": 4225,
  "elenco": 4226,
  "\u2581Rest": 4227,
  "\u2581Ter": 4228,
  "\u2581aspects": 4229,
  "\u2581contract": 4230,
  "34": 4231,
  "\u2581meaning": 4232,
  "uga": 4233,
  "\u2581parents": 4234,
  "\u2581Porto": 4235,
  "OJ": 4236,
  "more": 4237,
  "\u2581reading": 4238,
  "\u2581Terra": 4239,
  "\u2581Sembra": 4240,
  "ox": 4241,
  "\u2581directive": 4242,
  "\u2581acciaio": 4243,
  "\u2581estrema": 4244,
  "\u2581agreed": 4245,
  "\u2581Sale": 4246,
  "tiche": 4247,
  "\u2581Year": 4248,
  "\u2581passare": 4249,
  "\u2581UE": 4250,
  "\u2581intorno": 4251,
  "\u2581trovano": 4252,
  "\u2581tickets": 4253,
  "\u2581continuare": 4254,
  "\u2581Spanish": 4255,
  "\u2581developing": 4256,
  "berg": 4257,
  "\u2581Ber": 4258,
  "\u2581parlato": 4259,
  "\u2581studenti": 4260,
  "\u2581voli": 4261,
  "\u2581Firenze": 4262,
  "\u2581reduction": 4263,
  "cio": 4264,
  "\u2581propone": 4265,
  "schi": 4266,
  "sche": 4267,
  "CO": 4268,
  "\u2581Robert": 4269,
  "\u2581Vedi": 4270,
  "\u2581spiritual": 4271,
  "\u2581quickly": 4272,
  "\u2581compared": 4273,
  "\u2581ski": 4274,
  "\u2581metodi": 4275,
  "\u2581IL": 4276,
  "\u2581reached": 4277,
  "\u2581likely": 4278,
  "gue": 4279,
  "\u2581response": 4280,
  "\u2581esecuzione": 4281,
  "\u2581italiano": 4282,
  "\u2581necessari": 4283,
  "dina": 4284,
  "ery": 4285,
  "\u2581sentire": 4286,
  "\u2581Torn": 4287,
  "\u2581Ricord": 4288,
  "\u2581mandato": 4289,
  "\u2581Back": 4290,
  "\u2581Para": 4291,
  "\u2581park": 4292,
  "\u2581Official": 4293,
  "\u2581suitable": 4294,
  "azienda": 4295,
  "\u2581Two": 4296,
  "\u2581guess": 4297,
  "\u2581loss": 4298,
  "\u2581l\u00e0": 4299,
  "\u2581led": 4300,
  "\u2581formato": 4301,
  "vol": 4302,
  "\u2581prepared": 4303,
  "\u258155": 4304,
  "\u2581conti": 4305,
  "\u2581offrire": 4306,
  "rn": 4307,
  "08": 4308,
  "\u2581Mur": 4309,
  "\u2581students": 4310,
  "und": 4311,
  "\u2581offered": 4312,
  "\u2581Support": 4313,
  "PC": 4314,
  "\u2581obiettivo": 4315,
  "ade": 4316,
  "ju": 4317,
  "\u2581lack": 4318,
  "\u2581pensato": 4319,
  "\u2581families": 4320,
  ",000": 4321,
  "\u2581impianti": 4322,
  "\u2581perdere": 4323,
  "\u2581Day": 4324,
  "\u2581Commissioner": 4325,
  "\u2581certainly": 4326,
  "\u2581cielo": 4327,
  "\u2581Castell": 4328,
  "\u00e7a": 4329,
  "\u2581opening": 4330,
  "\u2581Development": 4331,
  "\u2581utile": 4332,
  "\u2581gr": 4333,
  "\u2581controlli": 4334,
  "\u2581af": 4335,
  "\u2581cio": 4336,
  "\u2581Tutte": 4337,
  "\u2581Tar": 4338,
  "\u2581looks": 4339,
  "\u2581entra": 4340,
  "urante": 4341,
  "lina": 4342,
  "ward": 4343,
  "\u2581consiglio": 4344,
  "\u2581malattia": 4345,
  "anni": 4346,
  "cast": 4347,
  "\u2581Wo": 4348,
  "\u258165": 4349,
  "\u2581Time": 4350,
  "rete": 4351,
  "ude": 4352,
  "\u2581provision": 4353,
  "\u2581siti": 4354,
  "\u2581esame": 4355,
  "zzare": 4356,
  "38": 4357,
  "ziona": 4358,
  "\u2581carne": 4359,
  "\u258133": 4360,
  "\u2581felice": 4361,
  "eo": 4362,
  "\u2581interessati": 4363,
  "DA": 4364,
  "uit": 4365,
  "\u2581focus": 4366,
  "\u2581System": 4367,
  "\u2581min": 4368,
  "\u2581Window": 4369,
  "\u2581dallo": 4370,
  "\u2581sleep": 4371,
  "\u2581400": 4372,
  "\u2581worked": 4373,
  "opera": 4374,
  "\u2581Sub": 4375,
  "\u2581participation": 4376,
  "\u2581agosto": 4377,
  "\u2581determined": 4378,
  "\u2581accepted": 4379,
  "\u2581success": 4380,
  "\u2581died": 4381,
  "\u2581Mary": 4382,
  "\u2581Op": 4383,
  "\u2581running": 4384,
  "ili": 4385,
  "\u2581writing": 4386,
  "\u2581errore": 4387,
  "\u2581pictures": 4388,
  "2.": 4389,
  "\u2581giovane": 4390,
  "\u2581require": 4391,
  "\u2581Commissari": 4392,
  "\u2581precedenti": 4393,
  "\u2581stesse": 4394,
  "cher": 4395,
  "\u2581replaced": 4396,
  "\u2581capito": 4397,
  "\u2581,\"": 4398,
  "COM": 4399,
  "\u2581edifici": 4400,
  "\u2581duty": 4401,
  "\u2581draft": 4402,
  "\u2581poor": 4403,
  "\u2581limit": 4404,
  "\u2581Mel": 4405,
  "\u2581distribuzione": 4406,
  "ans": 4407,
  "\u2581Far": 4408,
  "Pre": 4409,
  "bro": 4410,
  "\u2581contratto": 4411,
  "\u2581figlia": 4412,
  "\u2581condizionata": 4413,
  "\u2581vie": 4414,
  "ature": 4415,
  "\u2581cibo": 4416,
  "\u2581Today": 4417,
  "\u2581expected": 4418,
  "\u2581fuoco": 4419,
  "stri": 4420,
  "press": 4421,
  "ich": 4422,
  "\u2581interesting": 4423,
  "\u2581Catholic": 4424,
  "\u2581distribution": 4425,
  "\u2581highly": 4426,
  "\u2581Florence": 4427,
  "\u2581inglese": 4428,
  "\u2581Note": 4429,
  "\u2581picture": 4430,
  "ology": 4431,
  "\u2581pia": 4432,
  "\u2581laws": 4433,
  "\u2581bel": 4434,
  "37": 4435,
  "\u2581Whereas": 4436,
  "\u2581ospita": 4437,
  "oth": 4438,
  "\u2581availability": 4439,
  "ey": 4440,
  "\u2581Michael": 4441,
  "ppo": 4442,
  "\u2581sectors": 4443,
  "\u2581assistenza": 4444,
  "\u2581sap": 4445,
  "venti": 4446,
  "\u2581recente": 4447,
  "\u2581usually": 4448,
  "\u2581star": 4449,
  "\u2581latest": 4450,
  "uto": 4451,
  "\u2581gara": 4452,
  "\u2581Son": 4453,
  "\u2581flights": 4454,
  "\u2581immediatamente": 4455,
  "\u2581scambi": 4456,
  "\u2581medical": 4457,
  "\u2581modificare": 4458,
  "\u2581Office": 4459,
  "\u2581Therefore": 4460,
  "\u2581Design": 4461,
  "\u2581Barcelona": 4462,
  "\u2581fundamental": 4463,
  "\u258185": 4464,
  "09": 4465,
  "hat": 4466,
  "\u2581majority": 4467,
  "\u2581tomorrow": 4468,
  "\u2581comfortable": 4469,
  "\u2581cen": 4470,
  "\u2581matters": 4471,
  "\u2581Journal": 4472,
  "\u2581consumption": 4473,
  "\u2581Romania": 4474,
  "\u2581deep": 4475,
  "\u2581completo": 4476,
  "\u00f6": 4477,
  "\u25811998": 4478,
  "simo": 4479,
  "uma": 4480,
  "\u2581draw": 4481,
  "\u2581fortuna": 4482,
  "\u2581began": 4483,
  "41": 4484,
  "\u2581Most": 4485,
  "\u2581calls": 4486,
  "\u2581partners": 4487,
  "\u258134": 4488,
  "\u2581riunione": 4489,
  "\u2581aspetto": 4490,
  "\u2581Shi": 4491,
  "nci": 4492,
  "\u258138": 4493,
  "\u2581rid": 4494,
  "\u2581creato": 4495,
  "\u2581win": 4496,
  "usa": 4497,
  "\u2581adottare": 4498,
  "\u2581selection": 4499,
  "\u2581seguire": 4500,
  "\u2581scorso": 4501,
  "\u2581club": 4502,
  "\u2581imports": 4503,
  "\u2581province": 4504,
  "nie": 4505,
  "\u2581dicendo": 4506,
  "\u2581aware": 4507,
  "\u2581prega": 4508,
  "\u2581priorit\u00e0": 4509,
  "telli": 4510,
  "\u2581industriale": 4511,
  "\u2581states": 4512,
  "\u2581veicoli": 4513,
  "\u2581sales": 4514,
  "You": 4515,
  "\u2581Egli": 4516,
  "\u2581export": 4517,
  "\u2581Ferr": 4518,
  "\u2581drink": 4519,
  "\u2581contenuti": 4520,
  "\u2581Costa": 4521,
  "ef": 4522,
  "\u2581bank": 4523,
  "\u2581oggetti": 4524,
  "\u2581cliente": 4525,
  "\u2581Santo": 4526,
  "\u2581physical": 4527,
  "\u2581Pol": 4528,
  "\u2581modificato": 4529,
  "\u2581cento": 4530,
  "cha": 4531,
  "\u2581scoprire": 4532,
  "\u2581vo": 4533,
  "\u2581Mc": 4534,
  "\u2581previste": 4535,
  "Non": 4536,
  "lica": 4537,
  "02": 4538,
  "immagine": 4539,
  "itch": 4540,
  "\u2581richieste": 4541,
  "\u2581Pi\u00f9": 4542,
  "metti": 4543,
  "\u2581Camera": 4544,
  "\u2581Policy": 4545,
  "\u2581pensi": 4546,
  "\u2581dialogue": 4547,
  "\u2581Log": 4548,
  "\u2581detailed": 4549,
  "\u2581vecchio": 4550,
  "\u2581pursuan": 4551,
  "\u2581importanza": 4552,
  "\u2581path": 4553,
  "\u2581tanti": 4554,
  "\u2581vacanze": 4555,
  "\u2581although": 4556,
  "rom": 4557,
  "\u2581Board": 4558,
  "\u2581situated": 4559,
  "\u2581richiede": 4560,
  "\u2581colleghi": 4561,
  "\u2581perso": 4562,
  "56": 4563,
  "\u2581domani": 4564,
  "\u2581rom": 4565,
  "toria": 4566,
  "\u2581denaro": 4567,
  "\u2581prese": 4568,
  "\u2581furono": 4569,
  "\u2581sister": 4570,
  "ume": 4571,
  "\u2581yes": 4572,
  "\u2581placed": 4573,
  "\u2581Dan": 4574,
  "eni": 4575,
  "\u2581Acc": 4576,
  "\u2581porto": 4577,
  "\u2581remains": 4578,
  "you": 4579,
  "\u2581differenza": 4580,
  "....": 4581,
  "ala": 4582,
  "\u2581diverso": 4583,
  "\u2581store": 4584,
  "ec": 4585,
  "\u2581listed": 4586,
  "\u2581button": 4587,
  "\u2581Street": 4588,
  "cr": 4589,
  "\u2581trans": 4590,
  "led": 4591,
  "\u2581Fri": 4592,
  "\u2581luoghi": 4593,
  "\u2581Live": 4594,
  "\u2581religious": 4595,
  "\u2581Government": 4596,
  "\u2581seven": 4597,
  "\u2581cast": 4598,
  "tron": 4599,
  "down": 4600,
  "\u258150%": 4601,
  "\u2581beni": 4602,
  "\u2581Bur": 4603,
  "\u2581insurance": 4604,
  "\u2581EES": 4605,
  "cra": 4606,
  "\u2581costa": 4607,
  "\u2581andato": 4608,
  "\u2581soul": 4609,
  "\u2581write": 4610,
  "\u2581destra": 4611,
  "asco": 4612,
  "ew": 4613,
  "An": 4614,
  "\u2581historical": 4615,
  "\u2581analisi": 4616,
  "ido": 4617,
  "\u2581lose": 4618,
  "\u2581innovative": 4619,
  "\u2581visits": 4620,
  "ians": 4621,
  "\u2581beyond": 4622,
  "68": 4623,
  "\u2581Color": 4624,
  "\u2581race": 4625,
  "\u2581scientific": 4626,
  "bri": 4627,
  "ries": 4628,
  "analisi": 4629,
  "nge": 4630,
  "\u2581prenotazione": 4631,
  "\u2581quiet": 4632,
  "\u2581hu": 4633,
  "\u2581Papa": 4634,
  "\u2581finally": 4635,
  "\u2581competenze": 4636,
  "\u2581device": 4637,
  "sk": 4638,
  "\u2581ideas": 4639,
  "\u2581sometimes": 4640,
  "US": 4641,
  "\u2581tool": 4642,
  "\u2581offering": 4643,
  "4,": 4644,
  "\u2581consegna": 4645,
  "\u2581miglioramento": 4646,
  "\u2581sostenere": 4647,
  "\u2581punta": 4648,
  "\u2581aumentare": 4649,
  "\u2581Bel": 4650,
  "\u2581meters": 4651,
  "\u2581vegetables": 4652,
  "\u2581husband": 4653,
  "met": 4654,
  "essa": 4655,
  "\u2581stress": 4656,
  "\u2581king": 4657,
  "\u2581connessione": 4658,
  "\u258137": 4659,
  "lato": 4660,
  "\u2581houses": 4661,
  "\u2581dimensione": 4662,
  "\u2581specified": 4663,
  "unt": 4664,
  "\u2581destinati": 4665,
  "\u25815,": 4666,
  "\u2581scon": 4667,
  "\u2581former": 4668,
  "\u2581festa": 4669,
  "\u2581coffee": 4670,
  "\u2581sinistra": 4671,
  "\u2581dovr\u00e0": 4672,
  "\u2581mountain": 4673,
  "\u2581necessaria": 4674,
  "500": 4675,
  "\u2581nemmeno": 4676,
  "\u2581satellite": 4677,
  "eremo": 4678,
  "\u2581sweet": 4679,
  "\u2581reported": 4680,
  "-1": 4681,
  "ros": 4682,
  "\u2581relation": 4683,
  "\u2581Sul": 4684,
  "\u2581agri": 4685,
  "\u2581Greece": 4686,
  "\u2581storage": 4687,
  "\u2581accessori": 4688,
  "\u2581tried": 4689,
  "\u2581pubblicazione": 4690,
  "qua": 4691,
  "\u2581volont\u00e0": 4692,
  "\u2581lasciato": 4693,
  "gine": 4694,
  "importanza": 4695,
  "\u2581evening": 4696,
  "\u2581esperti": 4697,
  "\u2581indietro": 4698,
  "\u2581Will": 4699,
  "\u2581Tro": 4700,
  "\u2581billion": 4701,
  "\u2581campi": 4702,
  "43": 4703,
  "rick": 4704,
  "\u2581Vie": 4705,
  "\u2581semi": 4706,
  "endo": 4707,
  "\u2581ultimo": 4708,
  "\u2581ni": 4709,
  "\u2581em": 4710,
  "\u2581realizzare": 4711,
  "\u2581import": 4712,
  "dding": 4713,
  "\u2581innovation": 4714,
  "\u2581movimento": 4715,
  "\u2581ambientale": 4716,
  "\u00e2": 4717,
  "\u2581plants": 4718,
  "\u2581nave": 4719,
  "\u2581eye": 4720,
  "\u2581letter": 4721,
  "\u2581Malta": 4722,
  "\u2581complesso": 4723,
  "zer": 4724,
  "yn": 4725,
  "ust": 4726,
  "\u2581alternative": 4727,
  "\u2581trip": 4728,
  "\u2581Quello": 4729,
  "tici": 4730,
  "\u2581cal": 4731,
  "\u2581rispondere": 4732,
  "\u2581Mark": 4733,
  "lot": 4734,
  "\u2581lu": 4735,
  "gina": 4736,
  "\u2581Customer": 4737,
  "\u258101": 4738,
  "\u2581doppia": 4739,
  "TA": 4740,
  "\u2581Daniel": 4741,
  "\u2581Franc": 4742,
  "\u2581uscire": 4743,
  "\u2581demand": 4744,
  "ele": 4745,
  "\u2581potr\u00e0": 4746,
  "\u2581changed": 4747,
  "\u2581leading": 4748,
  "\u2581accoglie": 4749,
  "\u2581worth": 4750,
  "dal": 4751,
  "\u2581opportunit\u00e0": 4752,
  "\u2581dovrem": 4753,
  "\u2581tenuto": 4754,
  "riale": 4755,
  "ev": 4756,
  "come": 4757,
  "\u2581concrete": 4758,
  "\u2581sacco": 4759,
  "\u2581felt": 4760,
  "\u2581percorso": 4761,
  "\u2581Fund": 4762,
  "\u2581spe": 4763,
  "\u2581legislative": 4764,
  "\u2581fields": 4765,
  "\u2581Follow": 4766,
  "\u2581normale": 4767,
  "\u2581Andre": 4768,
  "\u2581assicurare": 4769,
  "\u2581Th": 4770,
  "\u2581Win": 4771,
  "\u2581finito": 4772,
  "\u2581relax": 4773,
  "\u2581Ya": 4774,
  "\u2581organization": 4775,
  "\u2581wonderful": 4776,
  "mine": 4777,
  "\u2581scale": 4778,
  "\u2581competente": 4779,
  "\u2581vehicles": 4780,
  "\u2581recently": 4781,
  "hood": 4782,
  "\u2581Michel": 4783,
  "\u258139": 4784,
  "\u2581tools": 4785,
  "\u2581blue": 4786,
  "This": 4787,
  "\u2581opportunities": 4788,
  "\u2581quell": 4789,
  "\u2581initiative": 4790,
  "\u2581daughter": 4791,
  "\u2581DEL": 4792,
  "ER": 4793,
  "ime": 4794,
  "\u2581conoscere": 4795,
  "\u2581containing": 4796,
  "ue": 4797,
  "renz": 4798,
  "\u2581kept": 4799,
  "\u2581correct": 4800,
  "\u2581wonder": 4801,
  "\u2581integration": 4802,
  "\u2581heaven": 4803,
  "\u2581ACP": 4804,
  "\u2581tener": 4805,
  "hot": 4806,
  "\u2581Prodotti": 4807,
  "\u2581resta": 4808,
  "\u2581facciamo": 4809,
  "\u2581attuale": 4810,
  "own": 4811,
  "feri": 4812,
  "\u2581dates": 4813,
  "\u2581caused": 4814,
  "\u2581importazioni": 4815,
  "\u2581PER": 4816,
  "\u2581south": 4817,
  "\u2581ragazze": 4818,
  "\u2581partenza": 4819,
  "\u2581miliardi": 4820,
  "\u2581While": 4821,
  "\u2581links": 4822,
  "\u2581trattati": 4823,
  "\u2581Chapter": 4824,
  "\u2581Power": 4825,
  "\u2581pick": 4826,
  "\u2581concern": 4827,
  "\u258142": 4828,
  "\u2581pare": 4829,
  "\u2581aggiungere": 4830,
  "\u2581applicabile": 4831,
  "\u2581provenienti": 4832,
  "\u2581Products": 4833,
  "\u2581economiche": 4834,
  "ving": 4835,
  "\u2581messa": 4836,
  "\u2581components": 4837,
  "\u2581According": 4838,
  "\u2581Communities": 4839,
  "\u2581provincia": 4840,
  "\u2581options": 4841,
  "\u2581customs": 4842,
  "\u2581Company": 4843,
  "\u258144": 4844,
  "\u2581marito": 4845,
  "dica": 4846,
  "\u2581buono": 4847,
  "\u2581lingue": 4848,
  "\u2581ucciso": 4849,
  "\u2581piena": 4850,
  "tivi": 4851,
  "\u2581terreno": 4852,
  "\u2581fiducia": 4853,
  "\u2581George": 4854,
  "\u2581turistica": 4855,
  "\u2581vostre": 4856,
  "\u2581statement": 4857,
  "\u2581Dai": 4858,
  "\u2581permesso": 4859,
  "\u2581controllare": 4860,
  "\u2581Area": 4861,
  "\u2581cities": 4862,
  "\u2581Act": 4863,
  "\u2581progressi": 4864,
  "\u2581shot": 4865,
  "\u2581Association": 4866,
  "\u25813:": 4867,
  "AR": 4868,
  "\u2581competenti": 4869,
  "\u2581Ge": 4870,
  "air": 4871,
  "\u2581Link": 4872,
  "\u2581secret": 4873,
  "\u2581Nei": 4874,
  "\u2581volo": 4875,
  "\u2581presentazione": 4876,
  "utilizzo": 4877,
  "\u2581dispositivo": 4878,
  "\u2581useful": 4879,
  "\u2581sustainable": 4880,
  "\u2581Des": 4881,
  "\u2581Poss": 4882,
  "\u2581miglior": 4883,
  "\u2581meat": 4884,
  "\u2581Top": 4885,
  "\u2581cell": 4886,
  "59": 4887,
  "\u2581reality": 4888,
  "\u2581fiori": 4889,
  "\u2581particolari": 4890,
  "\u2581beauty": 4891,
  "\u2581direction": 4892,
  "rale": 4893,
  "\u2581achieved": 4894,
  "\u2581obtained": 4895,
  "\u2581dibattito": 4896,
  "\u2581independent": 4897,
  "\u2581implementing": 4898,
  "\u2581Grand": 4899,
  "\u2581pratiche": 4900,
  "\u2581display": 4901,
  "stre": 4902,
  "\u2581scala": 4903,
  "pia": 4904,
  "care": 4905,
  "77": 4906,
  "\u2581venga": 4907,
  "\u2581touch": 4908,
  "\u2581distance": 4909,
  "\u2581costituisce": 4910,
  "\u2581emissioni": 4911,
  "\u2581consumer": 4912,
  "\u2581ability": 4913,
  "\u2581sce": 4914,
  "\u2581s\u00e9": 4915,
  "ei": 4916,
  "\u2581Ross": 4917,
  "\u2581Er": 4918,
  "\u2581scene": 4919,
  "right": 4920,
  "\u2581connected": 4921,
  "\u2581Sir": 4922,
  "\u2581Bio": 4923,
  "\u2581(2": 4924,
  "\u2581characteristics": 4925,
  "98": 4926,
  "\u2581Greek": 4927,
  "\u2581cristiani": 4928,
  "isola": 4929,
  "\u2581Poli": 4930,
  "\u2581master": 4931,
  "\u2581hurt": 4932,
  "ory": 4933,
  "ttle": 4934,
  "onda": 4935,
  "\u2581successivo": 4936,
  "\u2581Business": 4937,
  "rina": 4938,
  "ound": 4939,
  "85": 4940,
  "\u2581waiting": 4941,
  "\u2581biglietti": 4942,
  "\u2581posta": 4943,
  "set": 4944,
  "\u2581traffico": 4945,
  "cell": 4946,
  "\u2581limiti": 4947,
  "\u2581rock": 4948,
  "voli": 4949,
  "\u2581utilizzando": 4950,
  "\u2581Agency": 4951,
  "\u2581selezione": 4952,
  "\u2581annunci": 4953,
  "\u2581Ger": 4954,
  "\u2581jobs": 4955,
  "\u2581venuto": 4956,
  "spa": 4957,
  "oid": 4958,
  "\u2581selected": 4959,
  "\u2581veicolo": 4960,
  "\u2581politici": 4961,
  "len": 4962,
  "\u2581indicato": 4963,
  "\u2581purchase": 4964,
  "ury": 4965,
  "\u2581producers": 4966,
  "\u2581comments": 4967,
  "\u25811997": 4968,
  "\u2581stu": 4969,
  "\u2581leggere": 4970,
  "\u2581sette": 4971,
  "\u2581(4)": 4972,
  "\u2581establish": 4973,
  "vert": 4974,
  "\u2581stuff": 4975,
  "\u2581pezzi": 4976,
  "\u2581navi": 4977,
  "\u25816.": 4978,
  "\u2581squadra": 4979,
  "\u2581esistenti": 4980,
  "\u258100": 4981,
  "\u2581regulations": 4982,
  "\u2581cri": 4983,
  "\u2581hospital": 4984,
  "\u2581Code": 4985,
  "\u2581arrangements": 4986,
  "ji": 4987,
  "\u2581virus": 4988,
  "\u2581Alcuni": 4989,
  "\u2581expressed": 4990,
  "\u2581enable": 4991,
  "\u2581Tell": 4992,
  "\u2581Parigi": 4993,
  "\u2581diventa": 4994,
  "\u2581sforzi": 4995,
  "\u2581King": 4996,
  "free": 4997,
  "\u2581milk": 4998,
  "\u2581advance": 4999,
  "aff": 5000,
  "\u2581ricevere": 5001,
  "MI": 5002,
  "\u2581rin": 5003,
  "\u2581extremely": 5004,
  "\u2581organisations": 5005,
  "\u2581120": 5006,
  "\u2581macchine": 5007,
  "\u2581length": 5008,
  "06": 5009,
  "\u2581maggioranza": 5010,
  "\u2581industriali": 5011,
  "\u2581negative": 5012,
  "\u2581sit": 5013,
  "\u2581Finally": 5014,
  "\u2581administration": 5015,
  "\u2581fear": 5016,
  "97": 5017,
  "\u2581plans": 5018,
  "\u2581porti": 5019,
  "\u2581surrounding": 5020,
  "\u2581meta": 5021,
  "\u2581names": 5022,
  "\u2581CD": 5023,
  "\u2581Signora": 5024,
  "\u2581specifico": 5025,
  "ttu": 5026,
  "\u2581release": 5027,
  "istruzione": 5028,
  "\u2581ecco": 5029,
  "\u2581Ze": 5030,
  "dri": 5031,
  "\u2581meetings": 5032,
  "\u2581feature": 5033,
  "\u2581prayer": 5034,
  "esercizio": 5035,
  "\u2581riforma": 5036,
  "\u2581described": 5037,
  "\u2581usa": 5038,
  "\u2581char": 5039,
  "\u2581warm": 5040,
  "ament": 5041,
  "\u2581Torre": 5042,
  "\u2581normativa": 5043,
  "0,00": 5044,
  "\u2581comunitarie": 5045,
  ".1": 5046,
  "ller": 5047,
  "-2": 5048,
  "\u2581difference": 5049,
  "\u2581engine": 5050,
  "\u2581establishment": 5051,
  "\u2581massa": 5052,
  "\u2581issued": 5053,
  "\u2581suggest": 5054,
  "65": 5055,
  "\u2581customer": 5056,
  "\u2581cold": 5057,
  "celle": 5058,
  "\u2581specifici": 5059,
  "\u2581obblighi": 5060,
  "\u2581esattamente": 5061,
  "bit": 5062,
  "\u2581mine": 5063,
  "ima": 5064,
  "\u2581Plan": 5065,
  "\u2581utili": 5066,
  "\u2581Oltre": 5067,
  "\u2581por": 5068,
  "ised": 5069,
  "\u2581funziona": 5070,
  "state": 5071,
  "\u2581gravi": 5072,
  "\u2581perdita": 5073,
  "urs": 5074,
  "\u2581character": 5075,
  "ndosi": 5076,
  "\u2581sold": 5077,
  "cover": 5078,
  "\u2581Detta": 5079,
  "\u2581d\u00e0": 5080,
  "\u2581forget": 5081,
  "\u2581supposed": 5082,
  "\u2581solito": 5083,
  "\u2581James": 5084,
  "\u2581recommended": 5085,
  "key": 5086,
  "rad": 5087,
  "\u2581Porta": 5088,
  "\u2581promozione": 5089,
  "\u2581inform": 5090,
  "\u2581efficiency": 5091,
  "nk": 5092,
  "\u258143": 5093,
  "\u2581acquistare": 5094,
  "\u2581unto": 5095,
  "mark": 5096,
  "\u2581playing": 5097,
  "stant": 5098,
  "bia": 5099,
  "unico": 5100,
  "\u2581vetro": 5101,
  "\u2581prevista": 5102,
  "\u2581Netherlands": 5103,
  "\u2581voleva": 5104,
  "kin": 5105,
  "\u2581Common": 5106,
  "\u2581scri": 5107,
  "\u2581journey": 5108,
  "\u2581feeling": 5109,
  "05": 5110,
  "\u2581military": 5111,
  "\u2581Grecia": 5112,
  "\u2581Giu": 5113,
  "\u2581piece": 5114,
  "ddi": 5115,
  "tru": 5116,
  "\u2581Mediterranean": 5117,
  "wood": 5118,
  "\u2581altra": 5119,
  "\u2581circumstances": 5120,
  "\u2581spedizione": 5121,
  "\u2581desire": 5122,
  "\u2581potenza": 5123,
  "ik": 5124,
  "\u2581culturale": 5125,
  "\u2581partecipanti": 5126,
  "ea": 5127,
  "\u2581scheme": 5128,
  "bul": 5129,
  "\u2581aprire": 5130,
  "\u2581ter": 5131,
  "\u2581opened": 5132,
  "\u2581eventuali": 5133,
  "NO": 5134,
  "Ri": 5135,
  "\u2581sostenibile": 5136,
  "\u2581andata": 5137,
  "\u2581parcheggio": 5138,
  "\u2581mono": 5139,
  "\u2581discover": 5140,
  "\u2581Out": 5141,
  "\u2581mancanza": 5142,
  "\u2581organismi": 5143,
  "\u2581permanente": 5144,
  "\u2581press": 5145,
  "\u2581destinazione": 5146,
  "\u2581Make": 5147,
  "\u2581track": 5148,
  "\u2581digital": 5149,
  "\u2581effettuare": 5150,
  "\u2581disco": 5151,
  "\u2581alimentare": 5152,
  "\u2581units": 5153,
  "\u2581registrazione": 5154,
  "\u2581dura": 5155,
  "rei": 5156,
  "\u2581British": 5157,
  "\u2581numbers": 5158,
  "\u2581cap": 5159,
  "\u2581Blue": 5160,
  "\u2581substances": 5161,
  "\u2581manner": 5162,
  "\u2581delivery": 5163,
  "\u25818.": 5164,
  "\u2581increasing": 5165,
  "ique": 5166,
  "estensione": 5167,
  "\u2581originale": 5168,
  "\u2581250": 5169,
  "\u2581barca": 5170,
  "\u2581girls": 5171,
  "OR": 5172,
  "\u2581temperatura": 5173,
  "\u2581practical": 5174,
  "ative": 5175,
  "istic": 5176,
  "\u2581istituisce": 5177,
  "giorno": 5178,
  "\u2581prior": 5179,
  "\u2581interna": 5180,
  "\u2581diretto": 5181,
  "\u2581deals": 5182,
  "\u2581except": 5183,
  "Me": 5184,
  "\u2581scope": 5185,
  "phi": 5186,
  "\u2581CON": 5187,
  "\u2581adopt": 5188,
  "For": 5189,
  "\u2581notice": 5190,
  "gel": 5191,
  "\u2581Servizio": 5192,
  "\u2581combination": 5193,
  "\u2581Sud": 5194,
  "AT": 5195,
  "\u2581Land": 5196,
  "ken": 5197,
  "\u2581Nessun": 5198,
  "\u2581Trattato": 5199,
  "\u2581sufficiente": 5200,
  "stin": 5201,
  "\u2581commitment": 5202,
  "\u2581traffic": 5203,
  "\u2581task": 5204,
  "88": 5205,
  "\u2581Date": 5206,
  "\u2581considerato": 5207,
  "\u2581Madrid": 5208,
  "\u2581cambio": 5209,
  "\u2581error": 5210,
  "\u2581gift": 5211,
  "\u2581Christmas": 5212,
  "\u2581Section": 5213,
  "\u2581biglietto": 5214,
  "\u2581vantaggio": 5215,
  "\u2581latte": 5216,
  "87": 5217,
  "\u2581Potre": 5218,
  "\u258110%": 5219,
  "\u2581infrastructure": 5220,
  "\u2581capitolo": 5221,
  "lizza": 5222,
  "\u2581Many": 5223,
  "\u2581electronic": 5224,
  "Vi": 5225,
  "\u2581begin": 5226,
  "\u2581cambiamento": 5227,
  "\u2581Part": 5228,
  "\u2581applicazioni": 5229,
  "\u2581compito": 5230,
  "\u2581Wal": 5231,
  "\u2581extent": 5232,
  "\u2581audio": 5233,
  "ista": 5234,
  "\u2581porte": 5235,
  "mica": 5236,
  "\u2581rifiuti": 5237,
  "\u2581sviluppare": 5238,
  "\u2581clima": 5239,
  "\u2581package": 5240,
  "\u2581emendamenti": 5241,
  "\u2581negotiations": 5242,
  "\u2581cambiamenti": 5243,
  "\u2581exercise": 5244,
  "\u2581pranzo": 5245,
  "\u2581cambiare": 5246,
  "importazione": 5247,
  "\u2581requires": 5248,
  "\u2581Quanto": 5249,
  "angelo": 5250,
  "78": 5251,
  "\u2581offerta": 5252,
  "\u2581vogliono": 5253,
  "\u2581languages": 5254,
  "\u25811996": 5255,
  "\u2581technologies": 5256,
  "ska": 5257,
  "\u2581colpa": 5258,
  "ats": 5259,
  "\u2581publication": 5260,
  "\u2581Svizzera": 5261,
  "\u2581prossima": 5262,
  "\u2581comporta": 5263,
  "\u2581avr\u00e0": 5264,
  "\u2581Research": 5265,
  "\u2581dry": 5266,
  "\u2581Spirit": 5267,
  "96": 5268,
  "\u2581rapidamente": 5269,
  "\u2581stagione": 5270,
  "\u2581essenziale": 5271,
  "\u2581verifica": 5272,
  "TM": 5273,
  "\u2581Barcellona": 5274,
  "uk": 5275,
  "\u25811995": 5276,
  "\u25811994": 5277,
  "\u2581inizia": 5278,
  "\u2581formula": 5279,
  "\u2581Wil": 5280,
  "\u2581partecipare": 5281,
  "\u2581caff\u00e8": 5282,
  "\u2581Mio": 5283,
  "\u2581ship": 5284,
  "ado": 5285,
  "ability": 5286,
  "6,": 5287,
  "\u2581marchio": 5288,
  "\u2581Food": 5289,
  "\u2581worry": 5290,
  "\u2581highest": 5291,
  "\u2581climate": 5292,
  "\u2581advantage": 5293,
  "\u2581category": 5294,
  "\u2581comma": 5295,
  "\u2581stupi": 5296,
  "\u2581Gi\u00e0": 5297,
  "\u2581integrated": 5298,
  "\u2581chiamata": 5299,
  "\u2581affect": 5300,
  "front": 5301,
  "\u2581weather": 5302,
  "\u2581parco": 5303,
  "\u2581lontano": 5304,
  "\u2581dispositivi": 5305,
  "\u2581mouth": 5306,
  "\u2581indicated": 5307,
  "54": 5308,
  "\u2581dinner": 5309,
  "\u2581Ram": 5310,
  "\u2581whatever": 5311,
  "\u2581peccato": 5312,
  "rin": 5313,
  "importo": 5314,
  "\u2581chiaramente": 5315,
  "\u2581meraviglio": 5316,
  "\u2581Dar": 5317,
  "\u2581coordinamento": 5318,
  "org": 5319,
  "\u2581giu": 5320,
  "offerta": 5321,
  "\u2581rimane": 5322,
  "t\u00f2": 5323,
  "\u2581nu": 5324,
  "\u2581route": 5325,
  "\u2581destination": 5326,
  "\u2581Also": 5327,
  "uda": 5328,
  "\u2581Under": 5329,
  "\u2581select": 5330,
  "\u2581artisti": 5331,
  "eigh": 5332,
  "\u2581target": 5333,
  "\u2581Stop": 5334,
  "\u2581closed": 5335,
  "\u2581saper": 5336,
  "\u2581lasciare": 5337,
  "amente": 5338,
  "ches": 5339,
  "\u2581financing": 5340,
  "place": 5341,
  "\u2581Us": 5342,
  "\u2581Fondo": 5343,
  "\u2581Altre": 5344,
  "\u2581raccolta": 5345,
  "cho": 5346,
  "\u2581processi": 5347,
  "\u00fc": 5348,
  "\u2581benessere": 5349,
  "ium": 5350,
  "\u2581stabilire": 5351,
  "\u2581rise": 5352,
  "\u2581Creat": 5353,
  "\u2581Tali": 5354,
  "\u2581finanziarie": 5355,
  "stan": 5356,
  "\u2581rappresentanti": 5357,
  "\u2581Avev": 5358,
  "\u2581Share": 5359,
  "\u2581metal": 5360,
  "\u2581presa": 5361,
  "\u2581pubbliche": 5362,
  "IS": 5363,
  "\u2581pubblicato": 5364,
  "\u2581risolvere": 5365,
  "light": 5366,
  "\u2581dream": 5367,
  "\u2581approval": 5368,
  "\u2581Banca": 5369,
  "\u2581ampio": 5370,
  "\u2581obligations": 5371,
  "\u2581Justice": 5372,
  "\u2581Berlin": 5373,
  "\u2581riesco": 5374,
  "vamo": 5375,
  "\u2581alimentari": 5376,
  "\u2581Prodotto": 5377,
  "\u2581Before": 5378,
  "\u2581consentire": 5379,
  "spe": 5380,
  "\u2581rosso": 5381,
  "\u2581responsabili": 5382,
  "\u2581ormai": 5383,
  "cs": 5384,
  "\u2581committee": 5385,
  "\u2581preparazione": 5386,
  "\u2581Minister": 5387,
  "\u25811990": 5388,
  "\u2581veri": 5389,
  "soft": 5390,
  "\u2581wind": 5391,
  "intera": 5392,
  "\u2581regionali": 5393,
  "mbri": 5394,
  "\u2581Water": 5395,
  "\u2581sites": 5396,
  "work": 5397,
  "\u2581typical": 5398,
  "\u2581poli": 5399,
  "\u2581sugar": 5400,
  "\u2581mainly": 5401,
  "\u2581\u00e9": 5402,
  "AD": 5403,
  "\u2581sources": 5404,
  "\u2581reform": 5405,
  "[": 5406,
  "\u2581spend": 5407,
  "\u2581armi": 5408,
  "\u2581perhaps": 5409,
  "\u2581capelli": 5410,
  "\u2581banche": 5411,
  "\u2581rilassa": 5412,
  "RO": 5413,
  "\u2581description": 5414,
  "\u2581Amsterdam": 5415,
  "\u2581north": 5416,
  "\u2581tradizione": 5417,
  "ggiare": 5418,
  "\u2581mangia": 5419,
  "\u2581variety": 5420,
  "\u2581introduced": 5421,
  "\u2581singoli": 5422,
  "\u2581Switzerland": 5423,
  "adozione": 5424,
  "\u2581rapporti": 5425,
  "\u2581hill": 5426,
  "ardi": 5427,
  "para": 5428,
  "\u2581annuale": 5429,
  "\u2581HA": 5430,
  "gro": 5431,
  "\u2581speranza": 5432,
  "\u2581Center": 5433,
  "\u2581bocca": 5434,
  "\u2581circolazione": 5435,
  "tano": 5436,
  "\u2581articles": 5437,
  "\u2581tesoro": 5438,
  "\u2581viaggi": 5439,
  "\u2581presentata": 5440,
  "\u2581gi": 5441,
  "iana": 5442,
  "ON": 5443,
  "79": 5444,
  "ssaggio": 5445,
  "\u2581lettura": 5446,
  "0,": 5447,
  "\u2581danno": 5448,
  "\u2581Gruppo": 5449,
  "ula": 5450,
  "\u2581planning": 5451,
  "\u2581svolge": 5452,
  "rgli": 5453,
  "\u2581FOR": 5454,
  "gy": 5455,
  "\u2581becomes": 5456,
  "\u2581impegno": 5457,
  "\u2581luck": 5458,
  "\u2581street": 5459,
  "\u2581ascolta": 5460,
  "minute": 5461,
  "azioni": 5462,
  "\u2581Str": 5463,
  "\u2581express": 5464,
  "\u2581priority": 5465,
  "\u2581powers": 5466,
  "\u2581stone": 5467,
  "\u2581completed": 5468,
  "\u2581leggi": 5469,
  "\u2581modi": 5470,
  "\u2581Pra": 5471,
  "\u2581leaving": 5472,
  "\u2581diretta": 5473,
  "\u2581fasci": 5474,
  "ctor": 5475,
  "\u2581amending": 5476,
  "\u2581rapporteur": 5477,
  "\u2581ahead": 5478,
  "\u2581conclusione": 5479,
  "\u2581venne": 5480,
  "\u2581effort": 5481,
  "date": 5482,
  "\u2581racconta": 5483,
  "\u2581Vice": 5484,
  "\u2581Music": 5485,
  "\u2581Name": 5486,
  "\u2581RE": 5487,
  "\u2581suit": 5488,
  "\u2581Chinese": 5489,
  "\u2581Once": 5490,
  "\u2581profilo": 5491,
  "\u2581Conference": 5492,
  "5,": 5493,
  "\u2581ven": 5494,
  "\u2581tecnici": 5495,
  "interesse": 5496,
  "\u2581log": 5497,
  "terna": 5498,
  "assa": 5499,
  "\u2581importa": 5500,
  "\u2581Tur": 5501,
  "\u2581Fac": 5502,
  "\u2581turned": 5503,
  "9,": 5504,
  "\u2581finish": 5505,
  "lmente": 5506,
  "\u2581ottenuto": 5507,
  "\u2581bordo": 5508,
  "\u2581scar": 5509,
  "\u2581pronto": 5510,
  "ull": 5511,
  "ome": 5512,
  "rgo": 5513,
  "\u2581concerns": 5514,
  "\u2581colour": 5515,
  "\u2581sufficient": 5516,
  "\u2581mangiare": 5517,
  "\u2581trasferimento": 5518,
  "\u2581mobili": 5519,
  "\u2581vediamo": 5520,
  "\u2581limite": 5521,
  "\u2581Voi": 5522,
  "\u2581difesa": 5523,
  "\u2581tonight": 5524,
  "tati": 5525,
  "uro": 5526,
  "\u2581window": 5527,
  "\u2581motor": 5528,
  "aeroporto": 5529,
  "\u2581conseguenze": 5530,
  "\u2581net": 5531,
  "\u2581indicate": 5532,
  "\u2581unica": 5533,
  "\u2581Unite": 5534,
  "ttore": 5535,
  "\u2581fer": 5536,
  "\u2581ID": 5537,
  "\u2581passa": 5538,
  "\u2581Such": 5539,
  "\u2581SE": 5540,
  "mare": 5541,
  "\u2581mattina": 5542,
  "\u2581Adam": 5543,
  "\u2581assolutamente": 5544,
  "\u2581conference": 5545,
  "\u2581initiatives": 5546,
  "\u2581protocollo": 5547,
  "\u2581indirizzo": 5548,
  "\u2581parlando": 5549,
  "\u2581regular": 5550,
  "\u2581contrario": 5551,
  "\u2581Director": 5552,
  "\u2581Ved": 5553,
  "\u2581Open": 5554,
  "\u2581giocare": 5555,
  "lino": 5556,
  "07": 5557,
  "\u2581indeed": 5558,
  "grad": 5559,
  "57": 5560,
  "\u2581bor": 5561,
  "\u2581machines": 5562,
  "\u2581contribuire": 5563,
  "\u2581matrimonio": 5564,
  "ign": 5565,
  "\u2581cavo": 5566,
  "\u2581forze": 5567,
  "amenti": 5568,
  "\u2581sti": 5569,
  "almente": 5570,
  "\u2581gold": 5571,
  "\u2581installation": 5572,
  "\u2581Does": 5573,
  "\u2581damage": 5574,
  "\u2581continued": 5575,
  "\u2581medie": 5576,
  "\u2581organisation": 5577,
  "back": 5578,
  "din": 5579,
  "\u2581Natale": 5580,
  "intero": 5581,
  "\u2581raggiunto": 5582,
  "\u2581Londra": 5583,
  "\u2581stabilisce": 5584,
  "ants": 5585,
  "\u2581investigation": 5586,
  "\u2581abita": 5587,
  "\u2581married": 5588,
  "\u2581concept": 5589,
  "ties": 5590,
  "por": 5591,
  "\u2581qualunque": 5592,
  "\u25816,": 5593,
  "1/": 5594,
  "\u2581iniziato": 5595,
  "\u258109": 5596,
  "\u2581Case": 5597,
  "\u2581desideri": 5598,
  "Archi": 5599,
  "\u2581vantaggi": 5600,
  "\u2581models": 5601,
  "\u2581Sign": 5602,
  "\u2581negoziati": 5603,
  "\u2581soft": 5604,
  "\u258154": 5605,
  "\u2581paio": 5606,
  "\u2581DE": 5607,
  "\u2581cards": 5608,
  "\u2581sports": 5609,
  "\u2581duration": 5610,
  "\u2581adoption": 5611,
  "sp": 5612,
  "\u2581institution": 5613,
  "\u2581Bologna": 5614,
  "\u2581Portugal": 5615,
  "\u2581conditioning": 5616,
  "\u2581applicare": 5617,
  ".30": 5618,
  "\u2581manda": 5619,
  "\u2581lavora": 5620,
  "\u2581Although": 5621,
  "\u2581def": 5622,
  "42": 5623,
  "\u2581realizzato": 5624,
  "\\": 5625,
  "\u2581fonte": 5626,
  "\u2581maschi": 5627,
  "itt": 5628,
  "\u2581Quantit\u00e0": 5629,
  "\u2581ieri": 5630,
  "\u2581uccide": 5631,
  "\u2581beds": 5632,
  "\u2581heat": 5633,
  "\u2581Bon": 5634,
  "\u2581Use": 5635,
  "\u2581fratelli": 5636,
  "\u2581exhibition": 5637,
  "\u2581percentuale": 5638,
  "nch": 5639,
  "\u2581riconoscimento": 5640,
  "\u2581scheda": 5641,
  "\u2581signed": 5642,
  "\u2581Primo": 5643,
  "NI": 5644,
  "\u2581visitare": 5645,
  "\u2581dov": 5646,
  "\u2581Israele": 5647,
  "58": 5648,
  "\u2581mail": 5649,
  "\u25817.": 5650,
  "\u2581painting": 5651,
  "84": 5652,
  "pra": 5653,
  "\u2581scarica": 5654,
  "\u2581anch": 5655,
  "\u2581pagare": 5656,
  "\u2581Remember": 5657,
  "\u2581decidere": 5658,
  "\u258147": 5659,
  "\u2581currency": 5660,
  "tiamo": 5661,
  "\u2581tecnico": 5662,
  "66": 5663,
  "\u2581Hanno": 5664,
  "\u2581SA": 5665,
  "\u2581consumers": 5666,
  "\u2581aperta": 5667,
  "\u258149": 5668,
  "site": 5669,
  "\u2581swimming": 5670,
  "\u2581factors": 5671,
  "\u2581otto": 5672,
  "\u2581devices": 5673,
  "dato": 5674,
  "\u258141": 5675,
  "\u2581dipende": 5676,
  "ST": 5677,
  "\u2581vedo": 5678,
  "76": 5679,
  "\u258195": 5680,
  "\u2581titoli": 5681,
  "\u2581abbiano": 5682,
  "mes": 5683,
  "\u2581conferma": 5684,
  "\u2581composto": 5685,
  "\u2581Market": 5686,
  "\u2581treated": 5687,
  "\u2581strength": 5688,
  "\u2581neanche": 5689,
  "\u2581chilometri": 5690,
  "\u2581acts": 5691,
  "\u2581Mat": 5692,
  "\u2581Mag": 5693,
  "\u2581Sunday": 5694,
  "\u2581Very": 5695,
  "\u2581grow": 5696,
  "pine": 5697,
  "alta": 5698,
  "\u2581Por": 5699,
  "\u2581Face": 5700,
  "\u2581Res": 5701,
  "\u2581appear": 5702,
  "\u2581treni": 5703,
  "pin": 5704,
  "\u2581600": 5705,
  "\u2581cinema": 5706,
  "\u2581trouble": 5707,
  "zzata": 5708,
  "\u2581entered": 5709,
  "but": 5710,
  "\u258146": 5711,
  "\u2581moving": 5712,
  "ister": 5713,
  "alle": 5714,
  "\u2581dark": 5715,
  "\u2581Jean": 5716,
  "alog": 5717,
  "IP": 5718,
  "some": 5719,
  "alto": 5720,
  "\u2581Order": 5721,
  "\u2581refer": 5722,
  "\u2581conta": 5723,
  "\u2581idee": 5724,
  "\u2581ticket": 5725,
  "\u2581attack": 5726,
  "\u2581sw": 5727,
  "\u2581Qua": 5728,
  "\u2581seat": 5729,
  "\u2581vogliamo": 5730,
  "\u2581basato": 5731,
  "temi": 5732,
  "\u2581Email": 5733,
  "nare": 5734,
  "\u2581collega": 5735,
  "\u2581veloce": 5736,
  "\u2581format": 5737,
  "\u2581richiesto": 5738,
  "\u2581categorie": 5739,
  "euro": 5740,
  "mber": 5741,
  "\u2581tavolo": 5742,
  "\u2581produttore": 5743,
  "\u2581celebra": 5744,
  "epoca": 5745,
  "\u2581risulta": 5746,
  "\u2581ricorso": 5747,
  "\u2581infine": 5748,
  "\u2581title": 5749,
  "\u2581risks": 5750,
  "uca": 5751,
  "\u2581Health": 5752,
  "mici": 5753,
  "vac": 5754,
  "\u2581Word": 5755,
  "\u2581ourselves": 5756,
  "\u2581soddisfare": 5757,
  "\u2581adulti": 5758,
  "\u2581figura": 5759,
  "\u2581contribute": 5760,
  "\u2581evaluation": 5761,
  "\u2581spo": 5762,
  "\u2581growing": 5763,
  "\u2581ac": 5764,
  "based": 5765,
  "\u2581supported": 5766,
  "ule": 5767,
  "albergo": 5768,
  "appart": 5769,
  "\u2581Reg": 5770,
  "\u2581teaching": 5771,
  "\u2581Bis": 5772,
  "\u2581books": 5773,
  "\u2581tabella": 5774,
  "\u2581Would": 5775,
  "ival": 5776,
  "\u2581amounts": 5777,
  "\u2581Pat": 5778,
  "\u2581collegamento": 5779,
  "\u2581numerous": 5780,
  "\u2581monument": 5781,
  "\u2581preventivo": 5782,
  "\u2581interni": 5783,
  "\u2581sort": 5784,
  "\u2581patient": 5785,
  "\u258151": 5786,
  "\u2581numerose": 5787,
  "\u2581feet": 5788,
  "\u2581fornisce": 5789,
  "\u2581riguardanti": 5790,
  "iniziativa": 5791,
  "ware": 5792,
  "2018": 5793,
  "\u2581bellezza": 5794,
  "\u2581Map": 5795,
  "\u2581Ul": 5796,
  "pal": 5797,
  "\u2581EUROPEAN": 5798,
  "\u2581attiva": 5799,
  "\u2581maintain": 5800,
  "\u2581Ascolt": 5801,
  "\u2581medicinali": 5802,
  "\u2581players": 5803,
  "\u2581unless": 5804,
  "\u25819,": 5805,
  "hor": 5806,
  "cita": 5807,
  "\u2581leg": 5808,
  "mple": 5809,
  "\u2581poteva": 5810,
  "\u25811993": 5811,
  "ua": 5812,
  "\u2581drawn": 5813,
  "\u2581gira": 5814,
  "\u2581qualora": 5815,
  "\u2581generally": 5816,
  "rati": 5817,
  "\u2581Members": 5818,
  "\u2581Paese": 5819,
  "\u2581actual": 5820,
  "\u2581Pertanto": 5821,
  "\u2581serio": 5822,
  "\u2581representatives": 5823,
  "\u2581guardare": 5824,
  "\u2581determinare": 5825,
  "\u2581cool": 5826,
  "\u2581arm": 5827,
  "\u2581Light": 5828,
  "\u2581miss": 5829,
  "\u2581leaves": 5830,
  "\u2581indica": 5831,
  "\u2581compresi": 5832,
  "attuale": 5833,
  "\u2581initial": 5834,
  "\u2581Affairs": 5835,
  "aggi": 5836,
  "gan": 5837,
  "run": 5838,
  "\u2581Human": 5839,
  "\u2581caccia": 5840,
  "\u2581iron": 5841,
  "mus": 5842,
  "\u2581fl": 5843,
  "\u2581spiega": 5844,
  "\u2581CH": 5845,
  "\u2581bal": 5846,
  "\u2581interventi": 5847,
  "\u2581Guide": 5848,
  "\u2581Poich\u00e9": 5849,
  "\u2581blu": 5850,
  "\u2581Over": 5851,
  "\u2581valutare": 5852,
  "nel": 5853,
  "89": 5854,
  "well": 5855,
  "\u2581proposto": 5856,
  "TS": 5857,
  "\u2581creating": 5858,
  "\u2581stabilito": 5859,
  "\u2581giusta": 5860,
  "\u25814:": 5861,
  "\u2581SEE": 5862,
  "\u2581middle": 5863,
  "\u2581dolce": 5864,
  "\u2581fonti": 5865,
  "\u2581count": 5866,
  "\u2581Host": 5867,
  "\u2581sor": 5868,
  "\u2581funding": 5869,
  "\u2581dimenticato": 5870,
  "nal": 5871,
  "eranno": 5872,
  "\u2581scelto": 5873,
  "\u2581advice": 5874,
  "\u2581incontro": 5875,
  "\u2581dolore": 5876,
  "\u2581networks": 5877,
  "list": 5878,
  "\u2581huge": 5879,
  "\u2581Nessuno": 5880,
  "\u2581join": 5881,
  "\u00f1": 5882,
  "ku": 5883,
  "\u2581Wall": 5884,
  "\u2581Libr": 5885,
  "bin": 5886,
  "\u2581approccio": 5887,
  "letto": 5888,
  "\u2581understanding": 5889,
  "\u2581Security": 5890,
  "\u2581Party": 5891,
  "\u2581Ag": 5892,
  "\u2581Molto": 5893,
  "Registr": 5894,
  "\u2581spent": 5895,
  "\u258105": 5896,
  "\u2581privati": 5897,
  "\u2581cercato": 5898,
  "\u2581offri": 5899,
  "IA": 5900,
  "stel": 5901,
  "\u2581cattolic": 5902,
  "\u2581ritorno": 5903,
  "\u2581potenziale": 5904,
  "year": 5905,
  "\u2581chosen": 5906,
  "tle": 5907,
  "\u2581sappiamo": 5908,
  "\u2581Next": 5909,
  "\u2581Media": 5910,
  "oh": 5911,
  "\u2581arch": 5912,
  "\u2581conclusioni": 5913,
  "rare": 5914,
  "Ba": 5915,
  "\u2581Continua": 5916,
  "\u2581Gazzetta": 5917,
  "ET": 5918,
  "\u2581italiana": 5919,
  "\u2581stabilit\u00e0": 5920,
  "\u2581Cast": 5921,
  "\u2581materie": 5922,
  "win": 5923,
  "etto": 5924,
  "\u2581boat": 5925,
  "lc": 5926,
  "\u2581dog": 5927,
  "\u258152": 5928,
  "vete": 5929,
  "\u2581corrente": 5930,
  "\u2581holding": 5931,
  "Ar": 5932,
  "ob": 5933,
  "\u2581Gui": 5934,
  "\u2581dangerous": 5935,
  "\u258102": 5936,
  "\u2581Mass": 5937,
  "\u2581stra": 5938,
  "lini": 5939,
  "\u2581Tipo": 5940,
  "\u2581vini": 5941,
  "vertente": 5942,
  "\u2581Chia": 5943,
  "\u2581Standard": 5944,
  "\u2581skills": 5945,
  "\u2581Forum": 5946,
  "\u2581Children": 5947,
  "\u2581flow": 5948,
  "\u2581joy": 5949,
  "\u2581murder": 5950,
  "yan": 5951,
  "ram": 5952,
  "ces": 5953,
  "\u2581duties": 5954,
  "\u2581minima": 5955,
  "\u2581Bull": 5956,
  "\u2581happens": 5957,
  "\u2581Events": 5958,
  "\u2581shape": 5959,
  "zone": 5960,
  "\u2581corsi": 5961,
  "\u2581gentil": 5962,
  "\u2581exist": 5963,
  "MA": 5964,
  "\u2581golf": 5965,
  "\u2581proper": 5966,
  "\u2581afraid": 5967,
  "\u2581sento": 5968,
  "\u2581Road": 5969,
  "\u2581(0)": 5970,
  "\u2581memoria": 5971,
  "coli": 5972,
  "stu": 5973,
  "\u2581compliance": 5974,
  "\u2581Anna": 5975,
  "asa": 5976,
  "\u2581iniziale": 5977,
  "\u2581Table": 5978,
  "\u2581ciclo": 5979,
  "ym": 5980,
  "\u2581voluto": 5981,
  "FI": 5982,
  "cept": 5983,
  "\u2581Private": 5984,
  "\u2581definire": 5985,
  "\u2581spi": 5986,
  "Su": 5987,
  "\u2581lie": 5988,
  "nata": 5989,
  "\u2581perch\u00e8": 5990,
  "\u2581creati": 5991,
  "\u2581Pie": 5992,
  "\u258184": 5993,
  "\u2581Gold": 5994,
  "iro": 5995,
  "\u00f3": 5996,
  "\u2581lettere": 5997,
  "\u2581contain": 5998,
  "ense": 5999,
  "\u2581nonostante": 6000,
  "\u2581villaggio": 6001,
  "\u2581Fatto": 6002,
  "\u2581chia": 6003,
  "\u2581moved": 6004,
  "\u2581iniziare": 6005,
  "\u2581grand": 6006,
  "\u2581arti": 6007,
  "\u2581Energy": 6008,
  "\u2581elemento": 6009,
  "\u2581interessate": 6010,
  "bl": 6011,
  "\u2581adottate": 6012,
  "\u2581guidelines": 6013,
  "\u2581Russian": 6014,
  "zzate": 6015,
  "comp": 6016,
  "\u2581variet\u00e0": 6017,
  "assi": 6018,
  "\u2581intervento": 6019,
  "\u2581Terr": 6020,
  "lico": 6021,
  "NA": 6022,
  "scono": 6023,
  "\u2581powerful": 6024,
  "\u2581comunitari": 6025,
  "ric": 6026,
  "\u2581Close": 6027,
  "tale": 6028,
  "\u2581successful": 6029,
  "\u2581income": 6030,
  "\u2581tira": 6031,
  "\u2581Pr": 6032,
  "\u2581eight": 6033,
  "SI": 6034,
  "\u2581degree": 6035,
  "94": 6036,
  "\u2581sf": 6037,
  "ismo": 6038,
  "\u2581centrali": 6039,
  "\u2581rafforzare": 6040,
  "\u2581landscape": 6041,
  "\u2581raised": 6042,
  "\u2581detail": 6043,
  "\u2581localit\u00e0": 6044,
  "\u2581Access": 6045,
  "amil": 6046,
  "\u2581strutturali": 6047,
  "\u2581Eu": 6048,
  "\u2581revisione": 6049,
  "\u2581Class": 6050,
  "\u2581olive": 6051,
  "\u2581nuclear": 6052,
  "rand": 6053,
  "mann": 6054,
  "\u2581immobiliare": 6055,
  "\u2581bisogna": 6056,
  "\u2581espresso": 6057,
  "\u2581Adesso": 6058,
  "\u2581provato": 6059,
  "\u2581Capo": 6060,
  "\u2581enti": 6061,
  "\u2581learning": 6062,
  "\u2581esperienze": 6063,
  "asso": 6064,
  "ges": 6065,
  "sion": 6066,
  "\u2581Place": 6067,
  "\u2581Call": 6068,
  "gger": 6069,
  "\u2581surround": 6070,
  "\u2581practices": 6071,
  "\u2581Law": 6072,
  "67": 6073,
  "\u2581accounts": 6074,
  "hr": 6075,
  "\u2581volevo": 6076,
  "\u2581notes": 6077,
  "\u2581obtain": 6078,
  "\u2581domestic": 6079,
  "\u2581border": 6080,
  "\u2581substance": 6081,
  "omba": 6082,
  "\u2581screen": 6083,
  "\u25817,": 6084,
  "\u2581credere": 6085,
  "\u258120%": 6086,
  "\u2581stro": 6087,
  "\u2581fornito": 6088,
  "\u2581sostanza": 6089,
  "\u2581otherwise": 6090,
  "\u2581maintenance": 6091,
  "\u2581fashion": 6092,
  "\u2581tradition": 6093,
  "\u25811000": 6094,
  "\u2581Give": 6095,
  "\u2581Bas": 6096,
  "\u2581Codice": 6097,
  "\u2581Ah": 6098,
  "\u2581elevato": 6099,
  "\u2581rental": 6100,
  "\u2581atmosphere": 6101,
  "estival": 6102,
  "\u2581linked": 6103,
  "\u2581Management": 6104,
  "\u2581concluded": 6105,
  "\u2581banks": 6106,
  "arti": 6107,
  "\u2581Thus": 6108,
  "\u2581morti": 6109,
  "\u2581registered": 6110,
  "2/": 6111,
  "\u2581PMI": 6112,
  "\u2581Island": 6113,
  "\u2581indi": 6114,
  "peri": 6115,
  "\u2581Model": 6116,
  "\u2581quanti": 6117,
  "\u2581museum": 6118,
  "\u2581phase": 6119,
  "\u2581structural": 6120,
  "\u2581Med": 6121,
  "\u2581comment": 6122,
  "\u2581premi": 6123,
  "\u2581fiume": 6124,
  "61": 6125,
  "\u2581circonda": 6126,
  "ras": 6127,
  "\u2581dance": 6128,
  "lar": 6129,
  "\u2581clicca": 6130,
  "\u2581convenzione": 6131,
  "\u2581Type": 6132,
  "\u2581centri": 6133,
  "ions": 6134,
  "\u2581registrato": 6135,
  "\u2581Disponibile": 6136,
  "\u2581rice": 6137,
  "ther": 6138,
  "\u258156": 6139,
  "\u2581recovery": 6140,
  "\u2581database": 6141,
  "\u2581scusa": 6142,
  "lly": 6143,
  "\u258172": 6144,
  "\u2581cash": 6145,
  "\u2581inizio": 6146,
  "rm": 6147,
  "isation": 6148,
  "\u2581accessories": 6149,
  "\u2581visione": 6150,
  "rac": 6151,
  "\u2581Studi": 6152,
  "nate": 6153,
  "\u2581vittime": 6154,
  "\u2581translation": 6155,
  "not": 6156,
  "\u2581passaggio": 6157,
  "Agenzia": 6158,
  "\u2581largest": 6159,
  "\u2581gentlemen": 6160,
  "\u2581definition": 6161,
  "\u2581principalmente": 6162,
  "\u2581metres": 6163,
  "\u2581raggi": 6164,
  "\u2581identified": 6165,
  "7,": 6166,
  "\u2581Nothing": 6167,
  "cock": 6168,
  "\u2581Luxembourg": 6169,
  "table": 6170,
  "\u2581preghiera": 6171,
  "tz": 6172,
  "ius": 6173,
  "\u2581Multi": 6174,
  "\u2581Medi": 6175,
  "\u2581quantity": 6176,
  "\u2581assets": 6177,
  "\u2581Toscana": 6178,
  "mond": 6179,
  "km": 6180,
  "\u2581indipendente": 6181,
  "\u2581Programme": 6182,
  "impatto": 6183,
  "\u2581district": 6184,
  "\u2581applicabili": 6185,
  "\u2581usci": 6186,
  "\u2581processes": 6187,
  "\u2581Fine": 6188,
  "zzati": 6189,
  "Si": 6190,
  "\u2581delivered": 6191,
  "\u2581navigazione": 6192,
  "\u2581Bulgaria": 6193,
  "\u2581efficient": 6194,
  "\u2581taluni": 6195,
  "essi": 6196,
  "\u2581Agri": 6197,
  "\u2581fossero": 6198,
  "\u2581asking": 6199,
  "ved": 6200,
  "\u2581pietra": 6201,
  "\u2581piante": 6202,
  "\u2581singolo": 6203,
  "\u2581vision": 6204,
  "1.": 6205,
  "\u2581pagine": 6206,
  "America": 6207,
  "\u2581morire": 6208,
  "sis": 6209,
  "\u2581blow": 6210,
  "\u2581ment": 6211,
  "\u2581Infine": 6212,
  "\u2581quartiere": 6213,
  "\u2581functions": 6214,
  "\u2581scor": 6215,
  "zionale": 6216,
  "\u2581Ty": 6217,
  "\u2581lusso": 6218,
  "DF": 6219,
  "\u2581firm": 6220,
  "\u2581payments": 6221,
  "\u2581employees": 6222,
  "\u2581sicuramente": 6223,
  "\u2581structures": 6224,
  "\u2581contracts": 6225,
  "\u2581recenti": 6226,
  "\u2581copy": 6227,
  "\u2581LED": 6228,
  "\u2581winter": 6229,
  "\u2581Cho": 6230,
  "\u2581previsti": 6231,
  "SS": 6232,
  "\u2581segno": 6233,
  "dom": 6234,
  "\u2581operators": 6235,
  "lone": 6236,
  "\u2581Monaco": 6237,
  "\u2581Valle": 6238,
  "\u2581Attivit\u00e0": 6239,
  "\u2581finestra": 6240,
  "\u2581reservation": 6241,
  "\u2581interessante": 6242,
  "\u2581Location": 6243,
  "\u2581smart": 6244,
  "\u2581breath": 6245,
  "\u2581stated": 6246,
  "uel": 6247,
  "\u2581edition": 6248,
  "\u2581specifica": 6249,
  "ada": 6250,
  "mal": 6251,
  "esistenza": 6252,
  "\u2581Quantity": 6253,
  "sky": 6254,
  "\u2581sarebbero": 6255,
  "\u2581occupa": 6256,
  "\u2581utilizzo": 6257,
  "\u2581Protocol": 6258,
  "\u2581voto": 6259,
  "\u2581president": 6260,
  "\u2581memory": 6261,
  "\u2581Available": 6262,
  "\u2581limits": 6263,
  "\u2581mark": 6264,
  "69": 6265,
  "BI": 6266,
  "izia": 6267,
  "\u2581requested": 6268,
  "\u2581conclusion": 6269,
  "-10": 6270,
  "\u2581Nu": 6271,
  "ky": 6272,
  "\u2581elenco": 6273,
  "\u2581Spirito": 6274,
  "\u2581capisco": 6275,
  "\u2581residence": 6276,
  "\u2581collezione": 6277,
  "\u2581potranno": 6278,
  "\u2581Belgium": 6279,
  "et\u00e0": 6280,
  "Car": 6281,
  "\u2581Bro": 6282,
  "\u2581influence": 6283,
  "chia": 6284,
  "\u2581played": 6285,
  "fici": 6286,
  "\u2581introduction": 6287,
  "\u2581bear": 6288,
  "\u2581insegna": 6289,
  "\u2581provare": 6290,
  "\u2581Essa": 6291,
  "\u2581kit": 6292,
  "\u2581shop": 6293,
  "\u2581ambientali": 6294,
  "\u2581clic": 6295,
  "\u2581disabili": 6296,
  "\u2581andando": 6297,
  "\u2581noto": 6298,
  "\u2581Mentre": 6299,
  "\u2581Capi": 6300,
  "ses": 6301,
  "\u2581ragioni": 6302,
  "\u2581cars": 6303,
  "\u2581verificare": 6304,
  "arch": 6305,
  "night": 6306,
  "vale": 6307,
  "UN": 6308,
  "\u2581removed": 6309,
  "\u2581Authority": 6310,
  "\u2581assume": 6311,
  "\u2581Moreover": 6312,
  "ech": 6313,
  ".3": 6314,
  "\u2581affected": 6315,
  "\u2581malattie": 6316,
  "\u2581Essi": 6317,
  "\u2581esclusivamente": 6318,
  "\u2581proteggere": 6319,
  "tane": 6320,
  "\u2581undertakings": 6321,
  "Un": 6322,
  "\u2581Pietro": 6323,
  "\u2581schi": 6324,
  "\u2581opzioni": 6325,
  "\u2581Japan": 6326,
  "\u2581spread": 6327,
  "\u2581agricoli": 6328,
  "lori": 6329,
  "\u2581alive": 6330,
  "\u2581competenza": 6331,
  "\u2581Albert": 6332,
  "\u2581ciascun": 6333,
  "attenzione": 6334,
  "\u2581altres\u00ec": 6335,
  "\u2581gio": 6336,
  "\u2581rimanere": 6337,
  "\u2581inclusi": 6338,
  "\u2581compreso": 6339,
  "\u2581privata": 6340,
  "\u2581spirituale": 6341,
  "SA": 6342,
  "anda": 6343,
  "\u2581straight": 6344,
  "\u2581EEA": 6345,
  "\u2581sight": 6346,
  "\u2581pray": 6347,
  "fit": 6348,
  "\u2581conferenza": 6349,
  "\u2581residenti": 6350,
  "\u2581diversa": 6351,
  "\u2581sicura": 6352,
  "MS": 6353,
  "\u2581remove": 6354,
  "ibi": 6355,
  "\u2581giuridica": 6356,
  "\u2581comando": 6357,
  "osso": 6358,
  "\u2581immediate": 6359,
  "Ro": 6360,
  "\u2581spia": 6361,
  "SD": 6362,
  "\u2581Which": 6363,
  "\u2581banca": 6364,
  "\u2581orientamenti": 6365,
  "\u2581attuazione": 6366,
  "\u2581dubbio": 6367,
  "\u2581feed": 6368,
  "\u2581exclusive": 6369,
  "\u2581representative": 6370,
  "maz": 6371,
  "\u2581libri": 6372,
  "\u2581th": 6373,
  "\u2581raise": 6374,
  "\u2581hi": 6375,
  "introduzione": 6376,
  "\u2581tests": 6377,
  "\u2581attuali": 6378,
  "unit\u00e0": 6379,
  "8,": 6380,
  "\u2581zucchero": 6381,
  "test": 6382,
  "\u2581notizie": 6383,
  "MP": 6384,
  "lcome": 6385,
  "\u2581hate": 6386,
  "\u2581danni": 6387,
  "\u2581Angel": 6388,
  "\u2581svolgere": 6389,
  "Universit\u00e0": 6390,
  "\u2581voglia": 6391,
  "\u2581ufficio": 6392,
  "\u2581attivi": 6393,
  "rga": 6394,
  "\u2581religion": 6395,
  "\u2581esterni": 6396,
  "\u2581Best": 6397,
  "\u2581Nome": 6398,
  "\u2581Portogallo": 6399,
  "\u2581Posizione": 6400,
  "\u2581Nazioni": 6401,
  "\u2581esterno": 6402,
  "\u2581calling": 6403,
  "\u2581contratti": 6404,
  "rro": 6405,
  "\u2581Contatti": 6406,
  "\u2581thousand": 6407,
  "\u258186": 6408,
  "\u2581aereo": 6409,
  "\u2581doubt": 6410,
  "\u2581collegamenti": 6411,
  "\u2581scena": 6412,
  "\u2581wrote": 6413,
  "\u2581implemented": 6414,
  "\u2581organi": 6415,
  "\u2581easier": 6416,
  "\u2581Swiss": 6417,
  "\u2581compagnia": 6418,
  "\u2581Joint": 6419,
  "\u2581proceedings": 6420,
  "\u2581telling": 6421,
  "\u2581qual": 6422,
  "\u2581mer": 6423,
  "rag": 6424,
  "\u2581Forza": 6425,
  "\u2581Luc": 6426,
  "\u2581trasmissione": 6427,
  "\u2581earlier": 6428,
  "\u2581pieces": 6429,
  "\u2581positivo": 6430,
  "d\u00ec": 6431,
  "than": 6432,
  "\u2581certa": 6433,
  "\u2581disoccupazione": 6434,
  "\u2581expect": 6435,
  "innovazione": 6436,
  "\u2581interessato": 6437,
  "\u2581justice": 6438,
  "logia": 6439,
  "\u2581Ski": 6440,
  "\u2581spetta": 6441,
  "ped": 6442,
  "\u2581Help": 6443,
  "nici": 6444,
  "\u2581batte": 6445,
  "\u2581inhabitants": 6446,
  "\u2581rural": 6447,
  "\u258110.": 6448,
  "\u2581coast": 6449,
  "ammi": 6450,
  "\u2581miste": 6451,
  "unta": 6452,
  "\u2581concetto": 6453,
  "\u2581shared": 6454,
  "cated": 6455,
  "\u2581approximately": 6456,
  "TE": 6457,
  "\u2581tradizionale": 6458,
  "\u2581Farm": 6459,
  "\u2581protected": 6460,
  "\u2581vesti": 6461,
  "lata": 6462,
  "\u2581dichiarato": 6463,
  "\u2581Ray": 6464,
  "\u2581consists": 6465,
  "\u2581sitting": 6466,
  "tech": 6467,
  "\u2581forti": 6468,
  "\u258103": 6469,
  "\u2581properties": 6470,
  "\u2581primary": 6471,
  "\u2581relatore": 6472,
  "\u2581PC": 6473,
  "\u2581acid": 6474,
  "86": 6475,
  "\u2581multiple": 6476,
  "umi": 6477,
  "\u2581info": 6478,
  "\u2581Giappone": 6479,
  "\u2581superiori": 6480,
  "\u2581decor": 6481,
  "\u2581Opinion": 6482,
  "\u2581regno": 6483,
  "til": 6484,
  "integrazione": 6485,
  "\u2581ensuring": 6486,
  "\u2581fat": 6487,
  "\u2581(3": 6488,
  "dono": 6489,
  "\u2581released": 6490,
  "\u2581letti": 6491,
  "%": 6492,
  "\u2581paziente": 6493,
  "Tu": 6494,
  "\u2581occasion": 6495,
  "\u2581discussion": 6496,
  "\u2581Simon": 6497,
  "\u2581aimed": 6498,
  "\u2581ladies": 6499,
  "\u2581ricordo": 6500,
  "Plus": 6501,
  "CI": 6502,
  "\u2581river": 6503,
  "\u2581consultazione": 6504,
  "\u2581trees": 6505,
  "\u2581ottimo": 6506,
  "\u2581historic": 6507,
  "\u2581command": 6508,
  "\u2581heading": 6509,
  "menta": 6510,
  "\u2581amendment": 6511,
  "\u2581resistenza": 6512,
  "\u2581frutta": 6513,
  "\u2581Grande": 6514,
  "oma": 6515,
  "cl": 6516,
  "\u2581Term": 6517,
  "\u2581riserva": 6518,
  "\u2581approvato": 6519,
  "ert": 6520,
  "\u2581anticipo": 6521,
  "made": 6522,
  "\u2581missing": 6523,
  "\u2581programs": 6524,
  "\u2581partnership": 6525,
  "\u2581wear": 6526,
  "\u2581riusci": 6527,
  "sma": 6528,
  "\u2581whereas": 6529,
  "\u2581agricola": 6530,
  "\u2581explain": 6531,
  "\u2581Prof": 6532,
  "\u2581tassi": 6533,
  "\u258108": 6534,
  "ife": 6535,
  "\u2581riceve": 6536,
  "shop": 6537,
  "\u2581pubblicit\u00e0": 6538,
  "\u2581osservazioni": 6539,
  "\u258164": 6540,
  "\u2581Occorre": 6541,
  "\u2581tedesco": 6542,
  "\u2581stia": 6543,
  "fra": 6544,
  "\u2581Miss": 6545,
  "\u258162": 6546,
  "\u2581Trade": 6547,
  "\u2581attivo": 6548,
  "\u2581ultima": 6549,
  "\u2581infrastrutture": 6550,
  "\u2581performed": 6551,
  "\u2581sino": 6552,
  "regolamentazione": 6553,
  "\u2581sviluppato": 6554,
  "\u2581spesa": 6555,
  "\u2581preparation": 6556,
  "\u2581Old": 6557,
  "\u2581spazi": 6558,
  "rid": 6559,
  "CH": 6560,
  "pie": 6561,
  "tin": 6562,
  "lock": 6563,
  "\u2581sand": 6564,
  "\u2581Sar": 6565,
  "\u2581Financial": 6566,
  "\u2581costante": 6567,
  "\u2581classi": 6568,
  "ern": 6569,
  "\u2581dimostrato": 6570,
  "utente": 6571,
  "\u2581perfetta": 6572,
  "\u2581>": 6573,
  "esecuzione": 6574,
  "\u2581ciascuna": 6575,
  "\u2581band": 6576,
  "\u2581sfida": 6577,
  "acquisto": 6578,
  "body": 6579,
  "\u2581coordination": 6580,
  "ost": 6581,
  "\u2581far\u00e0": 6582,
  "idi": 6583,
  "\u2581represents": 6584,
  "MT": 6585,
  "cin": 6586,
  "\u2581outdoor": 6587,
  "\u2581z": 6588,
  "\u2581immagine": 6589,
  "\u2581imposta": 6590,
  "stante": 6591,
  "73": 6592,
  "\u2581player": 6593,
  "\u2581copia": 6594,
  "vio": 6595,
  "rna": 6596,
  "\u2581plus": 6597,
  "\u2581sessione": 6598,
  "\u2581agenti": 6599,
  "nga": 6600,
  "trici": 6601,
  "acco": 6602,
  "\u25818,": 6603,
  "\u2581Bus": 6604,
  "\u2581Furthermore": 6605,
  "tella": 6606,
  "smi": 6607,
  "\u2581Sky": 6608,
  "\u2581tante": 6609,
  "scu": 6610,
  "leggi": 6611,
  "\u2581elettrica": 6612,
  "\u2581ovvero": 6613,
  "\u2581requests": 6614,
  "stiche": 6615,
  "\u2581figures": 6616,
  "\u2581forces": 6617,
  "tten": 6618,
  "\u2581Vienna": 6619,
  "mme": 6620,
  "\u2581Pu\u00f2": 6621,
  "\u2581debba": 6622,
  "\u2581olio": 6623,
  "\u2581custom": 6624,
  "\u2581scuole": 6625,
  "\u2581failure": 6626,
  "\u2581Province": 6627,
  "\u2581direttive": 6628,
  "\u2581popolare": 6629,
  "83": 6630,
  "\u2581arrival": 6631,
  "\u2581situazioni": 6632,
  "3/": 6633,
  "\u2581gel": 6634,
  "\u2581walking": 6635,
  "stru": 6636,
  "04": 6637,
  "\u2581sorella": 6638,
  "dan": 6639,
  "9/": 6640,
  "assistenza": 6641,
  "\u2581match": 6642,
  "\u2581recognition": 6643,
  "mit": 6644,
  "\u2581rare": 6645,
  "To": 6646,
  "\u2581Jun": 6647,
  "\u2581commercializza": 6648,
  "\u2581buone": 6649,
  "\u2581Guida": 6650,
  "\u2581recante": 6651,
  "\u2581showing": 6652,
  "\u2581compare": 6653,
  "cola": 6654,
  "UM": 6655,
  "\u2581manufacturer": 6656,
  "\u2581object": 6657,
  "\u2581Keep": 6658,
  "oot": 6659,
  "\u2581existence": 6660,
  "\u2581moda": 6661,
  "\u2581encourage": 6662,
  "\u2581enterprises": 6663,
  "\u2581testi": 6664,
  "VI": 6665,
  "matic": 6666,
  "\u258187": 6667,
  "\u2581height": 6668,
  "\u2581Infatti": 6669,
  "\u2581comply": 6670,
  "\u2581challenge": 6671,
  "\u2581union": 6672,
  "\u2581crime": 6673,
  "\u2581potrem": 6674,
  "\u2581passed": 6675,
  "ganized": 6676,
  "\u2581comincia": 6677,
  "\u2581Turkey": 6678,
  "\u2581numeri": 6679,
  "stare": 6680,
  "\u258193": 6681,
  "\u2581seek": 6682,
  "tone": 6683,
  "IC": 6684,
  "\u2581800": 6685,
  "\u2581pleasure": 6686,
  "\u2581installed": 6687,
  "\u2581session": 6688,
  "\u2581Action": 6689,
  "\u2581Madam": 6690,
  "\u2581difficulties": 6691,
  "serv": 6692,
  "\u2581avesse": 6693,
  "\u2581Ali": 6694,
  "ttura": 6695,
  "\u2581terza": 6696,
  "\u2581Another": 6697,
  "\u2581Quel": 6698,
  "\u2581governi": 6699,
  "\u2581served": 6700,
  "\u2581goal": 6701,
  "\u2581totally": 6702,
  "\u2581Boll": 6703,
  "\u2581direttore": 6704,
  "\u2581represent": 6705,
  "\u2581impegni": 6706,
  "\u2581gode": 6707,
  "\u2581managed": 6708,
  "\u2581Royal": 6709,
  "\u2581Nuovo": 6710,
  "\u2581scus": 6711,
  "\u2581Citt\u00e0": 6712,
  "IM": 6713,
  "\u2581finished": 6714,
  "\u2581neither": 6715,
  "\u2581emissions": 6716,
  "\u2581fuel": 6717,
  "\u2581descrizione": 6718,
  "\u2581culturali": 6719,
  "\u2581stars": 6720,
  "\u2581Condizioni": 6721,
  "rim": 6722,
  "\u2581signs": 6723,
  "\u2581tourist": 6724,
  "\u2581Bassi": 6725,
  "\u2581ja": 6726,
  "\u2581association": 6727,
  "arco": 6728,
  "\u2581op": 6729,
  "\u2581promise": 6730,
  "\u2581gradi": 6731,
  "\u2581restaurants": 6732,
  "\u2581Machine": 6733,
  "\u2581print": 6734,
  "\u2581gioia": 6735,
  "\u2581unemployment": 6736,
  "64": 6737,
  "\u2581Town": 6738,
  "\u2581commenti": 6739,
  "\u258104": 6740,
  "\u2581sv": 6741,
  "fen": 6742,
  "\u2581rela": 6743,
  "odo": 6744,
  "\u2581Au": 6745,
  "\u2581Sw": 6746,
  "\u2581Belgio": 6747,
  "nor": 6748,
  "\u2581grosso": 6749,
  "\u2581nascita": 6750,
  "\u2581motori": 6751,
  "ford": 6752,
  "\u2581vicinanze": 6753,
  "\u2581categories": 6754,
  "\u2581owner": 6755,
  "\u2581experts": 6756,
  "\u2581dedicato": 6757,
  "\u2581binding": 6758,
  "\u2581seno": 6759,
  "\u2581schermo": 6760,
  "\u2581ricordi": 6761,
  "ail": 6762,
  "\u2581tessuto": 6763,
  "Design": 6764,
  "\u2581Public": 6765,
  "\u2581terapia": 6766,
  "\u2581sell": 6767,
  "\u2581ristoranti": 6768,
  "\u2581Figlio": 6769,
  "\u2581Potrebbe": 6770,
  "\u2581named": 6771,
  "ii": 6772,
  "\u2581Ana": 6773,
  "\u2581appears": 6774,
  "bli": 6775,
  "\u25819.": 6776,
  "\u2581Saturday": 6777,
  "\u2581costruire": 6778,
  "\u25811/": 6779,
  "\u2581conduct": 6780,
  "\u2581Life": 6781,
  "\u2581Network": 6782,
  "\u2581tras": 6783,
  "\u2581walls": 6784,
  "verso": 6785,
  "\u2581Parte": 6786,
  "menu": 6787,
  "\u2581Ku": 6788,
  "\u2581ricordare": 6789,
  "xi": 6790,
  "\u2581Travel": 6791,
  "\u2581legale": 6792,
  "\u2581tenendo": 6793,
  "\u2581alti": 6794,
  "\u2581evil": 6795,
  "\u2581extend": 6796,
  "\u2581professor": 6797,
  "\u2581stability": 6798,
  "\u2581reso": 6799,
  "\u2581Parti": 6800,
  "\u2581USD": 6801,
  "\u2581Master": 6802,
  "LI": 6803,
  "rica": 6804,
  "\u2581amazing": 6805,
  "\u2581concernente": 6806,
  "\u258106": 6807,
  "\u2581errori": 6808,
  "ega": 6809,
  "aries": 6810,
  "lis": 6811,
  "lati": 6812,
  "qu": 6813,
  "eller": 6814,
  "\u2581challenges": 6815,
  "\u2581nine": 6816,
  "\u2581intra": 6817,
  "band": 6818,
  "\u2581competitive": 6819,
  "\u2581businesses": 6820,
  "anche": 6821,
  "\u2581sick": 6822,
  "\u2581spot": 6823,
  "ase": 6824,
  "\u2581DA": 6825,
  "63": 6826,
  "sort": 6827,
  "\u2581rating": 6828,
  "\u2581belle": 6829,
  "\u2581determine": 6830,
  "\u2581criminal": 6831,
  "\u2581voci": 6832,
  "\u2581(5)": 6833,
  "\u2581immobiliari": 6834,
  "\u2581pericolo": 6835,
  "\u2581pages": 6836,
  "\u25811)": 6837,
  "\u2581element": 6838,
  "n\u00f2": 6839,
  "dic": 6840,
  "\u2581ECB": 6841,
  "\u2581consideration": 6842,
  "agricoltura": 6843,
  "Ex": 6844,
  "\u2581waters": 6845,
  "\u2581determinato": 6846,
  "\u2581App": 6847,
  "\u2581Decisione": 6848,
  "\u2581collaboration": 6849,
  "\u2581contatta": 6850,
  "\u2581Gian": 6851,
  "\u2581offrono": 6852,
  "\u2581Quali": 6853,
  "nali": 6854,
  "cante": 6855,
  "cula": 6856,
  "\u2581contained": 6857,
  "\u2581animale": 6858,
  "\u2581Tax": 6859,
  "\u2581technological": 6860,
  "\u2581despite": 6861,
  "dar": 6862,
  "51": 6863,
  "\u2581secure": 6864,
  "\u2581combined": 6865,
  "\u2581pesce": 6866,
  "\u2581Esso": 6867,
  "\u2581entrance": 6868,
  "\u258153": 6869,
  "\u2581(18": 6870,
  "race": 6871,
  "\u2581temi": 6872,
  "ttato": 6873,
  "\u2581drug": 6874,
  "\u2581Rosa": 6875,
  "\u2581Sport": 6876,
  "pul": 6877,
  "indirizzo": 6878,
  "\u2581est": 6879,
  "\u2581lived": 6880,
  "stici": 6881,
  "\u2581posizioni": 6882,
  "\u2581arrivo": 6883,
  "forma": 6884,
  "\u2581sba": 6885,
  "\u2581invita": 6886,
  "\u2581laying": 6887,
  "\u2581Charles": 6888,
  "long": 6889,
  "\u2581panoramic": 6890,
  "\u2581schools": 6891,
  "\u2581Foundation": 6892,
  "\u2581afferma": 6893,
  "\u2581Latin": 6894,
  "IL": 6895,
  "\u2581electricity": 6896,
  "\u2581advanced": 6897,
  "ugh": 6898,
  "\u2581medicine": 6899,
  "\u2581Friday": 6900,
  "sino": 6901,
  "\u2581[1],": 6902,
  "\u2581VAT": 6903,
  "tata": 6904,
  "CA": 6905,
  "2)": 6906,
  "lim": 6907,
  "\u25811991": 6908,
  "\u2581truly": 6909,
  "\u2581perform": 6910,
  "\u2581singola": 6911,
  "\u2581Sil": 6912,
  "100": 6913,
  "\u2581individuals": 6914,
  "\u2581azienda": 6915,
  "crit": 6916,
  "\u2581Sui": 6917,
  "\u2581luxury": 6918,
  "\u2581Napoli": 6919,
  "\u2581observed": 6920,
  "\u2581improving": 6921,
  "\u2581River": 6922,
  "\u2581visite": 6923,
  "\u2581participate": 6924,
  "\u2581valid": 6925,
  "\u2581brain": 6926,
  "\u2581dottor": 6927,
  "\u2581pagamenti": 6928,
  "\u2581aims": 6929,
  "82": 6930,
  "ARE": 6931,
  "card": 6932,
  "\u2581William": 6933,
  "\u2581suffering": 6934,
  "\u2581handle": 6935,
  "\u2581premio": 6936,
  "72": 6937,
  "\u2581eliminare": 6938,
  "\u2581fece": 6939,
  "\u2581Que": 6940,
  "rp": 6941,
  "\u2581felici": 6942,
  "\u2581comp": 6943,
  "ssimi": 6944,
  "\u2581pezzo": 6945,
  "PI": 6946,
  "\u2581certificate": 6947,
  "\u2581presidenza": 6948,
  "\u2581latter": 6949,
  "fini": 6950,
  "\u2581regola": 6951,
  "ambi": 6952,
  "\u2581cammina": 6953,
  "\u2581gun": 6954,
  "\u2581consiglia": 6955,
  "\u2581essenziali": 6956,
  "\u2581Um": 6957,
  "\u2581background": 6958,
  "\u2581supports": 6959,
  "\u2581committed": 6960,
  "\u2581prepare": 6961,
  "\u2581corretta": 6962,
  "\u2581Unione": 6963,
  "\u2581violence": 6964,
  "\u2581registrati": 6965,
  "\u2581submit": 6966,
  "\u2581recupero": 6967,
  "\u2581procedere": 6968,
  "\u2581faithful": 6969,
  "\u2581introduce": 6970,
  "\u2581developments": 6971,
  "TO": 6972,
  "\u2581furniture": 6973,
  "tern": 6974,
  "\u2581Colle": 6975,
  "istituzione": 6976,
  "\u2581pienamente": 6977,
  "\u2581monitoraggio": 6978,
  "gare": 6979,
  "\u2581soggetto": 6980,
  "\u2581profile": 6981,
  "\u2581Details": 6982,
  "\u2581rose": 6983,
  "\u2581monitor": 6984,
  "\u2581morta": 6985,
  "\u2581PRO": 6986,
  "\u2581paragrafi": 6987,
  "PT": 6988,
  "\u2581Irlanda": 6989,
  "\u2581Nice": 6990,
  "\u2581witness": 6991,
  "\u2581racco": 6992,
  "\u2581confirmed": 6993,
  "med": 6994,
  "\u2581moto": 6995,
  "\u2581statistics": 6996,
  "\u2581verranno": 6997,
  "\u2581extended": 6998,
  "\u2581emotion": 6999,
  "\u2581risposte": 7000,
  "\u2581acc": 7001,
  "\u2581loved": 7002,
  "\u2581caldo": 7003,
  "\u2581nomi": 7004,
  "\u2581accettare": 7005,
  "accia": 7006,
  "\u2581Antonio": 7007,
  "\u2581cane": 7008,
  "\u2581der": 7009,
  "sel": 7010,
  "\u2581urban": 7011,
  "\u2581PRE": 7012,
  "What": 7013,
  "\u2581digitale": 7014,
  "\u2581chiunque": 7015,
  "\u2581evento": 7016,
  "\u2581corresponding": 7017,
  "81": 7018,
  "zar": 7019,
  "\u2581driving": 7020,
  "tuali": 7021,
  "\u2581looked": 7022,
  "\u2581familiare": 7023,
  "\u2581anima": 7024,
  "\u2581Watch": 7025,
  "\u2581everybody": 7026,
  "\u2581Coll": 7027,
  "\u2581violenza": 7028,
  "play": 7029,
  "\u2581equivalent": 7030,
  "\u2581lunghezza": 7031,
  "\u2581Condivi": 7032,
  "\u2581strade": 7033,
  "\u2581vecchia": 7034,
  "AG": 7035,
  "\u0308": 7036,
  "\u2581essendo": 7037,
  "\u2581elettronica": 7038,
  "\u2581notevole": 7039,
  ".5": 7040,
  "\u2581rappresentano": 7041,
  "\u2581doveva": 7042,
  "ira": 7043,
  "\u2581gusto": 7044,
  "\u2581Campo": 7045,
  "\u2581doppio": 7046,
  "\u2581za": 7047,
  "\u2581notizia": 7048,
  "nati": 7049,
  "\u2581dipendenti": 7050,
  "\u2581tree": 7051,
  "illy": 7052,
  "\u2581Size": 7053,
  "\u2581output": 7054,
  "intervento": 7055,
  "rgi": 7056,
  "\u2581onorevoli": 7057,
  "\u2581Three": 7058,
  "\u2581trasformazione": 7059,
  "\u2581dar": 7060,
  "var": 7061,
  "\u258188": 7062,
  "autorizzazione": 7063,
  "\u2581quick": 7064,
  "\u2581cambia": 7065,
  "\u2581automatically": 7066,
  "\u2581stranieri": 7067,
  "74": 7068,
  "\u2581grant": 7069,
  "\u2581debito": 7070,
  "uke": 7071,
  "\u2581Institute": 7072,
  "cord": 7073,
  "top": 7074,
  "af": 7075,
  "\u2581fossi": 7076,
  "occo": 7077,
  "\u2581facilitate": 7078,
  "\u2581testimoni": 7079,
  "\u2581severe": 7080,
  "\u2581scoperto": 7081,
  "\u2581glad": 7082,
  "EUR": 7083,
  "lam": 7084,
  "\u2581pena": 7085,
  "bot": 7086,
  "\u2581doganale": 7087,
  "\u2581visitors": 7088,
  "\u2581fiscale": 7089,
  "\u2581montagna": 7090,
  "\u2581voti": 7091,
  "\u2581circostanze": 7092,
  "\u2581judgment": 7093,
  "vent": 7094,
  "\u2581Basta": 7095,
  "\u2581semplici": 7096,
  "\u2581noted": 7097,
  "sten": 7098,
  "ncia": 7099,
  "\u2581implement": 7100,
  "\u2581logo": 7101,
  "isa": 7102,
  "\u258157": 7103,
  "\u258189": 7104,
  "\u2581compresa": 7105,
  "er\u00f2": 7106,
  "\u2581capable": 7107,
  "\u2581fell": 7108,
  "\u2581Sun": 7109,
  "\u2581desiderio": 7110,
  "\u25811986": 7111,
  "mu": 7112,
  "\u2581organizzazione": 7113,
  "\u2581differences": 7114,
  "\u2581diffusione": 7115,
  "\u2581capitali": 7116,
  "\u2581supplementari": 7117,
  "\u2581strategic": 7118,
  "\u2581Gr": 7119,
  "\u2581showed": 7120,
  "\u2581manca": 7121,
  "\u2581Ban": 7122,
  "\u2581applicano": 7123,
  "\u2581resulting": 7124,
  "\u25811988": 7125,
  "\u2581medicinal": 7126,
  "\u2581solid": 7127,
  "ibile": 7128,
  "\u2581entitled": 7129,
  "\u2581compiti": 7130,
  "izing": 7131,
  "\u2581Visit": 7132,
  "PPE": 7133,
  "\u2581victims": 7134,
  "\u2581classic": 7135,
  "\u2581basi": 7136,
  "000": 7137,
  "\u2581seeing": 7138,
  "\u2581Step": 7139,
  "\u2581minuto": 7140,
  "\u2581gestire": 7141,
  "\u2581medici": 7142,
  "operazione": 7143,
  "\u25812012,": 7144,
  "\u2581mere": 7145,
  "\u2581naturalmente": 7146,
  "\u2581generation": 7147,
  "\u2581tasks": 7148,
  "\u2581conformi": 7149,
  "itter": 7150,
  "\u258179": 7151,
  "\u2581bag": 7152,
  "apertura": 7153,
  "\u2581piazza": 7154,
  "\u2581Turchia": 7155,
  "tero": 7156,
  "\u2581Western": 7157,
  "nco": 7158,
  "\u2581valuta": 7159,
  "ock": 7160,
  "\u2581effettivamente": 7161,
  "\u2581factor": 7162,
  "\u2581impatto": 7163,
  "\u2581Earth": 7164,
  "nese": 7165,
  "gari": 7166,
  "\u2581Work": 7167,
  "\u2581uguale": 7168,
  "\u2581magic": 7169,
  "\u2581manage": 7170,
  "\u2581television": 7171,
  "\u2581messaggi": 7172,
  "Ufficio": 7173,
  "\u2581meant": 7174,
  "\u2581resort": 7175,
  "vina": 7176,
  "\u2581regulatory": 7177,
  "\u2581claim": 7178,
  "\u2581science": 7179,
  "stina": 7180,
  "\u2581hundred": 7181,
  "occasione": 7182,
  "\u2581Communication": 7183,
  "obbligo": 7184,
  "form": 7185,
  "\u2581max": 7186,
  "isti": 7187,
  "\u2581Gro": 7188,
  "\u2581quarto": 7189,
  "rus": 7190,
  "\u2581bassa": 7191,
  "\u2581trasparenza": 7192,
  "rat": 7193,
  "\u2581menti": 7194,
  "\u2581residential": 7195,
  "\u258159": 7196,
  "\u2581debt": 7197,
  "\u2581imparare": 7198,
  "\u2581dettaglio": 7199,
  "\u2581lay": 7200,
  "\u2581informed": 7201,
  "\u2581registration": 7202,
  "burg": 7203,
  "\u2581diretti": 7204,
  "field": 7205,
  "\u2581generazione": 7206,
  "\u2581Vel": 7207,
  "\u2581conclude": 7208,
  "aw": 7209,
  "\u2581campione": 7210,
  "origine": 7211,
  "vedere": 7212,
  "\u2581fit": 7213,
  "ardo": 7214,
  "\u2581Lake": 7215,
  "\u2581attrezza": 7216,
  "8/": 7217,
  "\u00fa": 7218,
  "PE": 7219,
  "\u2581Giochi": 7220,
  "\u2581coppia": 7221,
  "\u2581orientale": 7222,
  "\u2581addressed": 7223,
  "\u2581percentage": 7224,
  "\u2581Hand": 7225,
  "\u2581electric": 7226,
  "\u2581vessels": 7227,
  "\u2581speaking": 7228,
  "\u2581conosciuto": 7229,
  "\u2581consultation": 7230,
  "\u2581canta": 7231,
  "\u2581manager": 7232,
  "\u2581manutenzione": 7233,
  "wal": 7234,
  "\u2581improvement": 7235,
  "\u2581Mol": 7236,
  "\u2581contatti": 7237,
  "\u2581silenzio": 7238,
  "\u2581pensione": 7239,
  "\u2581YOU": 7240,
  "\u2581becoming": 7241,
  "\u2581zero": 7242,
  "gus": 7243,
  "\u258130%": 7244,
  "\u2581mille": 7245,
  "\u2581demo": 7246,
  "\u2581orders": 7247,
  "\u2581treat": 7248,
  "\u2581sexual": 7249,
  "\u2581interessa": 7250,
  "\u2581friendly": 7251,
  "\u2581PE": 7252,
  "\u2581register": 7253,
  "\u2581Exp": 7254,
  "\u2581improved": 7255,
  "\u2581snow": 7256,
  "ned": 7257,
  "\u2581Select": 7258,
  "\u2581ris": 7259,
  "\u2581dovranno": 7260,
  "\u2581youth": 7261,
  "\u2581applicant": 7262,
  "mpo": 7263,
  "\u2581ISO": 7264,
  "\u2581chemical": 7265,
  "\u2581concerne": 7266,
  "\u2581combinazione": 7267,
  "\u2581volete": 7268,
  "91": 7269,
  "\u2581Regional": 7270,
  "\u2581occupazione": 7271,
  "\u2581throw": 7272,
  "\u2581~": 7273,
  "nse": 7274,
  "\u2581socio": 7275,
  "\u2581successfully": 7276,
  "\u2581firms": 7277,
  "\u2581vicini": 7278,
  "\u2581impossible": 7279,
  "\u2581wild": 7280,
  "\u2581ulteriormente": 7281,
  "ssione": 7282,
  "\u2581taglia": 7283,
  "\u25812020": 7284,
  "\u2581allegato": 7285,
  "\u2581operational": 7286,
  "\u2581Gas": 7287,
  "\u2581destinato": 7288,
  "\u2581coesione": 7289,
  "\u2581disabled": 7290,
  "\u2581ferro": 7291,
  "\u2581cer": 7292,
  "\u2581lies": 7293,
  "\u25811984": 7294,
  "\u2581priest": 7295,
  "\u2581accedere": 7296,
  "nni": 7297,
  "\u2581Zi": 7298,
  "II": 7299,
  "\u2581certamente": 7300,
  "\u2581Games": 7301,
  "\u2581perfettamente": 7302,
  "\u2581recommend": 7303,
  "\u2581passeggi": 7304,
  "esportazione": 7305,
  "\u2581accompanied": 7306,
  "\u2581pasto": 7307,
  "ufficio": 7308,
  "\u2581Jul": 7309,
  "\u2581piatti": 7310,
  "\u258168": 7311,
  "\u2581associazione": 7312,
  "\u258196": 7313,
  "eria": 7314,
  "aumento": 7315,
  "atori": 7316,
  "\u2581Debate": 7317,
  "\u2581Technical": 7318,
  "\u2581Bos": 7319,
  "\u258158": 7320,
  "\u2581heavy": 7321,
  "\u2581governments": 7322,
  "\u258169": 7323,
  "\u258198": 7324,
  "jan": 7325,
  "\u2581cells": 7326,
  "\u2581ufficiali": 7327,
  "ink": 7328,
  "\u2581esterna": 7329,
  "\u2581Richard": 7330,
  "tine": 7331,
  "\u2581familiari": 7332,
  "gente": 7333,
  "\u2581update": 7334,
  "\u2581Henry": 7335,
  "\u2581consequences": 7336,
  "\u2581Tor": 7337,
  "\u2581chiuso": 7338,
  "\u2581drop": 7339,
  "cente": 7340,
  "\u2581controls": 7341,
  "\u2581brothers": 7342,
  "\u2581marriage": 7343,
  "-3": 7344,
  "\u2581cinese": 7345,
  "\u2581pacchetto": 7346,
  "\u2581democratic": 7347,
  "\u2581partita": 7348,
  "\u2581modulo": 7349,
  "\u2581Society": 7350,
  "\u2581sl": 7351,
  "\u2581strengthen": 7352,
  "\u2581differenti": 7353,
  "\u2581scrivere": 7354,
  "\u2581turismo": 7355,
  "\u2581leather": 7356,
  "\u2581continues": 7357,
  "gate": 7358,
  "\u2581statistiche": 7359,
  "gl": 7360,
  "\u2581dam": 7361,
  "\u2581alimenti": 7362,
  "\u2581svolto": 7363,
  "\u2581tourism": 7364,
  "tery": 7365,
  "\u2581mention": 7366,
  "\u2581ordini": 7367,
  "\u2581indossa": 7368,
  "\u2581relativamente": 7369,
  "\u2581courses": 7370,
  "impegno": 7371,
  "\u2581CEE": 7372,
  "\u2581LORD": 7373,
  "\u2581conclusions": 7374,
  "\u2581occur": 7375,
  "\u2581indicazioni": 7376,
  "rano": 7377,
  "rine": 7378,
  "5/": 7379,
  "\u2581funzionalit\u00e0": 7380,
  "\u2581arrive": 7381,
  "mat": 7382,
  "somministrazione": 7383,
  "\u2581certificato": 7384,
  "\u2581exposure": 7385,
  "\u2581Deve": 7386,
  "ified": 7387,
  "\u2581African": 7388,
  "\u2581ovviamente": 7389,
  "ch\u00e9": 7390,
  "\u2581costituiscono": 7391,
  "\u2581Nor": 7392,
  "\u2581professionali": 7393,
  "\u2581acting": 7394,
  "nic": 7395,
  "pher": 7396,
  "\u2581tradizionali": 7397,
  "\u2581sheet": 7398,
  "esame": 7399,
  "\u2581Discussion": 7400,
  "\u2581intervention": 7401,
  "\u2581permettere": 7402,
  "\u2581specifically": 7403,
  "\u2581schemes": 7404,
  "Mar": 7405,
  "\u2581cassa": 7406,
  "\u2581instance": 7407,
  "\u2581proceed": 7408,
  "ably": 7409,
  "\u2581strano": 7410,
  "aglia": 7411,
  "\u2581bas": 7412,
  "RR": 7413,
  "\u2581consiste": 7414,
  "\u2581meccanismo": 7415,
  "\u2581risponde": 7416,
  "\u2581laboratorio": 7417,
  "\u2581dormire": 7418,
  "\u2581hall": 7419,
  "\u2581Molti": 7420,
  "\u2581drugs": 7421,
  "ristrutturazione": 7422,
  "\u2581obligation": 7423,
  "\u2581symbol": 7424,
  "\u2581Sala": 7425,
  "\u2581wines": 7426,
  "\u2581colle": 7427,
  "\u2581agenda": 7428,
  "aster": 7429,
  "\u2581benefici": 7430,
  "\u2581comportamento": 7431,
  "\u2581Max": 7432,
  "\u2581applies": 7433,
  "\u2581THIS": 7434,
  "\u2581scom": 7435,
  "\u2581BCE": 7436,
  "\u2581attrezzature": 7437,
  "effetto": 7438,
  "\u2581recorded": 7439,
  "har": 7440,
  "\u2581incluso": 7441,
  "corre": 7442,
  "European": 7443,
  "ivi": 7444,
  "\u2581monetary": 7445,
  "\u2581democrazia": 7446,
  "giu": 7447,
  "://": 7448,
  "ancing": 7449,
  "cento": 7450,
  "\u2581giapponese": 7451,
  "\u2581greatest": 7452,
  "\u2581leads": 7453,
  "\u2581architecture": 7454,
  "ures": 7455,
  "mina": 7456,
  "\u2581conservazione": 7457,
  "opzione": 7458,
  "\u2581Lisbon": 7459,
  "PS": 7460,
  "\u2581Nicol": 7461,
  "\u2581undertaking": 7462,
  "ket": 7463,
  "\u2581identify": 7464,
  "\u2581authorisation": 7465,
  "\u2581catch": 7466,
  "TI": 7467,
  "\u2581tonnellate": 7468,
  "\u2581corte": 7469,
  "\u2581Proprio": 7470,
  "\u2581Quella": 7471,
  "cili": 7472,
  "\u2581injection": 7473,
  "\u2581driver": 7474,
  "53": 7475,
  "\u2581ob": 7476,
  "\u25811983": 7477,
  "\u2581din": 7478,
  "\u2581confronto": 7479,
  "tina": 7480,
  "\u2581180": 7481,
  "\u2581produrre": 7482,
  "\u2581prevenzione": 7483,
  "\u2581Relazione": 7484,
  "\u2581SMEs": 7485,
  "evo": 7486,
  "6/": 7487,
  "\u2581riunioni": 7488,
  "\u2581cur": 7489,
  "\u2581fissato": 7490,
  "\u2581discussed": 7491,
  "\u2581conflict": 7492,
  "\u2581FR": 7493,
  "\u2581Family": 7494,
  "\u2581sorveglianza": 7495,
  "\u2581promoting": 7496,
  "og": 7497,
  "\u2581bottom": 7498,
  "vers": 7499,
  "\u2581luci": 7500,
  "\u2581interessanti": 7501,
  "\u2581Ltd": 7502,
  "\u2581fix": 7503,
  "\u2581tenuta": 7504,
  "\u2581Pote": 7505,
  "\u2581ISBN": 7506,
  "\u2581fri": 7507,
  "\u258199": 7508,
  "\u2581consenso": 7509,
  "\u2581standing": 7510,
  "\u2581expression": 7511,
  "\u2581pale": 7512,
  "zy": 7513,
  "\u2581keeping": 7514,
  "\u25811980": 7515,
  "7/": 7516,
  "\u2581esistono": 7517,
  "\u2581sfide": 7518,
  "300": 7519,
  "\u2581militare": 7520,
  "\u2581Cla": 7521,
  "\u2581permanent": 7522,
  "\u2581competitivit\u00e0": 7523,
  "\u2581prestiti": 7524,
  "ple": 7525,
  "\u2581Nazionale": 7526,
  "\u2581ultime": 7527,
  "\").": 7528,
  "As": 7529,
  "tene": 7530,
  "\u2581situations": 7531,
  "\u25811985": 7532,
  "\u2581pull": 7533,
  "installazione": 7534,
  "\u2581Spero": 7535,
  "\u2581considers": 7536,
  "\u2581considerare": 7537,
  "\u2581detta": 7538,
  "\u2581giocatori": 7539,
  "spiri": 7540,
  "\u2581operativo": 7541,
  "\u2581Put": 7542,
  "tions": 7543,
  "ossi": 7544,
  "\u2581frequenza": 7545,
  "{": 7546,
  "\u2581polvere": 7547,
  "\u2581platform": 7548,
  "\u2581mira": 7549,
  "pu": 7550,
  "\u2581absolutely": 7551,
  "mia": 7552,
  "\u2581Jerusalem": 7553,
  "\u2581false": 7554,
  "\u2581Sweden": 7555,
  "\u2581contributi": 7556,
  "\u2581sforzo": 7557,
  "bed": 7558,
  "nimo": 7559,
  "\u2581mid": 7560,
  "IVA": 7561,
  "200": 7562,
  "\u2581visual": 7563,
  "nello": 7564,
  "\u2581superare": 7565,
  "including": 7566,
  "\u2581Prend": 7567,
  "\u2581Lussemburgo": 7568,
  "\u2581emergency": 7569,
  "\u2581chiusura": 7570,
  "62": 7571,
  "\u2581Language": 7572,
  "\u2581mountains": 7573,
  "92": 7574,
  "\u2581Den": 7575,
  "\u2581pertinenti": 7576,
  "\u258110,": 7577,
  "allo": 7578,
  "\u2581avrebbero": 7579,
  "General": 7580,
  "\u2581ban": 7581,
  "\u2581patrimonio": 7582,
  "\u2581agriculture": 7583,
  "\u2581bere": 7584,
  "wel": 7585,
  "\u2581vasta": 7586,
  "kov": 7587,
  "\u2581piacevole": 7588,
  "\u2581domenica": 7589,
  "FF": 7590,
  "ille": 7591,
  "\u2581ministri": 7592,
  "\u2581dicono": 7593,
  "mas": 7594,
  "\u2581bright": 7595,
  "\u2581flowers": 7596,
  "\u2581participants": 7597,
  "\u2581significato": 7598,
  "\u2581br": 7599,
  "\u2581Slovenia": 7600,
  "UR": 7601,
  "\u25811989": 7602,
  "\u25811\u00b0": 7603,
  "\u2581stasera": 7604,
  "\u2581entirely": 7605,
  "put": 7606,
  "\u2581departure": 7607,
  "\u2581rurale": 7608,
  "\u2581theme": 7609,
  "\u2581Var": 7610,
  "\u2581Box": 7611,
  "icious": 7612,
  "\u2581Thomas": 7613,
  "\u2581concentrazione": 7614,
  "stino": 7615,
  "\u2581corsa": 7616,
  "\u2581democracy": 7617,
  "entrata": 7618,
  "\u258107": 7619,
  "\u2581inviare": 7620,
  "\u2581reali": 7621,
  "\u2581battle": 7622,
  "\u2581riscaldamento": 7623,
  "\u2581passeggeri": 7624,
  "\u2581Poland": 7625,
  "\u2581Gua": 7626,
  "\u2581precise": 7627,
  "lip": 7628,
  "\u2581gastro": 7629,
  "-12": 7630,
  "\u2581rapido": 7631,
  "\u2581capace": 7632,
  "\u2581Transport": 7633,
  "emia": 7634,
  "\u2581producer": 7635,
  "\u2581guar": 7636,
  "\u2581Qualcuno": 7637,
  "\u2581arms": 7638,
  "ect": 7639,
  "\u2581assicura": 7640,
  "52": 7641,
  "\u2581flag": 7642,
  "3.": 7643,
  "\u2581prison": 7644,
  "\u2581budgetary": 7645,
  "/7": 7646,
  "\u2581copertura": 7647,
  "sson": 7648,
  "\u2581vigilanza": 7649,
  "\u2581intense": 7650,
  "\u258177": 7651,
  "\u2581gua": 7652,
  "ific": 7653,
  "\u2581utilizzata": 7654,
  "fil": 7655,
  "\u2581farmaci": 7656,
  "On": 7657,
  "\u2581fissa": 7658,
  "cale": 7659,
  "\u2581impossibile": 7660,
  "NL": 7661,
  "\u2581artists": 7662,
  "unch": 7663,
  "Ho": 7664,
  "\u2581passion": 7665,
  "\u2581Additional": 7666,
  "\u2581Rio": 7667,
  "\u2581dimension": 7668,
  "\u2581Berg": 7669,
  "\u2581Parla": 7670,
  "\u2581Radio": 7671,
  "\u2581licenza": 7672,
  "SP": 7673,
  "\u2581Jew": 7674,
  "\u2581je": 7675,
  "\u2581Sulla": 7676,
  "\u2581thou": 7677,
  "\u2581nove": 7678,
  "\u2581uscita": 7679,
  "\u2581Steel": 7680,
  "\u2581bought": 7681,
  "\u2581medicinale": 7682,
  "\u2581valley": 7683,
  "}": 7684,
  "\u2581Annu": 7685,
  "bilmente": 7686,
  "cm": 7687,
  "rum": 7688,
  "\u2581spring": 7689,
  "\u2581moderno": 7690,
  "\u2581Frank": 7691,
  "\u2581--": 7692,
  "\u2581energetica": 7693,
  "\u2581till": 7694,
  "\u2581Presidency": 7695,
  "\u2581deposito": 7696,
  "\u2581vuoto": 7697,
  "\u2581contempo": 7698,
  "\u2581informa": 7699,
  "4/": 7700,
  "evoluzione": 7701,
  "\u2581organic": 7702,
  "\u2581critical": 7703,
  "\u2581pensiero": 7704,
  "\u2581periods": 7705,
  "\u2581Sistema": 7706,
  "\u2581nato": 7707,
  "pl": 7708,
  "\u2581sets": 7709,
  "\u2581deliver": 7710,
  "\u2581angolo": 7711,
  "\u2581cream": 7712,
  "\u2581shipping": 7713,
  "\u2581ice": 7714,
  "\u2581iniziativa": 7715,
  "ida": 7716,
  "\u2581rain": 7717,
  "\u2581sostituito": 7718,
  "lov": 7719,
  "\u2581Dam": 7720,
  "\u2581130": 7721,
  "max": 7722,
  "\u2581accanto": 7723,
  "\u2581investimento": 7724,
  "\u258191": 7725,
  "\u2581Gerusalemme": 7726,
  "\u2581founded": 7727,
  "\u2581esercizio": 7728,
  "\u2581Direttiva": 7729,
  "\u2581femminile": 7730,
  "\u2581sali": 7731,
  "ball": 7732,
  "\u2581empty": 7733,
  "\u2581recommendations": 7734,
  "\u2581traduzione": 7735,
  "\u2581reddito": 7736,
  "\u25811987": 7737,
  "IG": 7738,
  "\u2581tiene": 7739,
  "\u2581motion": 7740,
  "\u258173": 7741,
  "\u2581revolution": 7742,
  "umanit\u00e0": 7743,
  "\u2581fornitori": 7744,
  "\u2581ball": 7745,
  "\u2581properly": 7746,
  "\u2581fantas": 7747,
  "\u2581ritardo": 7748,
  "\u2581eco": 7749,
  "\u2581ring": 7750,
  "hil": 7751,
  "\u2581candidati": 7752,
  "\u2581appeal": 7753,
  "cini": 7754,
  "AM": 7755,
  "ttare": 7756,
  "\u2581Lombardia": 7757,
  "\u2581prospettiva": 7758,
  "\u2581Sua": 7759,
  "pot": 7760,
  "\u2581Main": 7761,
  "\u2581composition": 7762,
  "\u2581ser": 7763,
  "\u2581differenze": 7764,
  "\u2581dear": 7765,
  "\u2581Second": 7766,
  "\u2581objects": 7767,
  "\u2581fol": 7768,
  "\u2581Motor": 7769,
  "pr": 7770,
  "\u2581happening": 7771,
  "\u2581nations": 7772,
  "\u2581impe": 7773,
  "\u2581teach": 7774,
  "\u2581invited": 7775,
  "\u2581clinical": 7776,
  "\u2581poteri": 7777,
  "\u2581Convenzione": 7778,
  "0%": 7779,
  "\u2581Nations": 7780,
  "\u25812013,": 7781,
  "\u2581scrive": 7782,
  "\u2581AL": 7783,
  "bes": 7784,
  "\u2581Ulterior": 7785,
  "\u2581client": 7786,
  "\u2581loans": 7787,
  "\u2581vento": 7788,
  "TER": 7789,
  "\u2581costituito": 7790,
  "\u25812011,": 7791,
  "\u2581Line": 7792,
  "\u010d": 7793,
  "\u2581supporting": 7794,
  "\u2581advertising": 7795,
  "ily": 7796,
  "posi": 7797,
  "with": 7798,
  "\u2581cable": 7799,
  "\u2581helps": 7800,
  "\u2581apri": 7801,
  "\u2581identity": 7802,
  "hanno": 7803,
  "\u2581previously": 7804,
  "\u2581telephone": 7805,
  "\u258161": 7806,
  "ott": 7807,
  "phy": 7808,
  "cause": 7809,
  "\u2581calcolo": 7810,
  "asy": 7811,
  "\u2581controlled": 7812,
  "\u2581cup": 7813,
  "\u2581declaration": 7814,
  "erano": 7815,
  "\u2581modificata": 7816,
  "\u2581carrying": 7817,
  "\u2581coraggio": 7818,
  "venuto": 7819,
  "\u2581transparency": 7820,
  "rdo": 7821,
  "\u258174": 7822,
  "\u2581temporary": 7823,
  "\u2581Based": 7824,
  "\u2581Conosc": 7825,
  "\u2581plastic": 7826,
  "point": 7827,
  "\u2581Ms": 7828,
  "\u2581sogno": 7829,
  "\u2581closely": 7830,
  "\u2581planned": 7831,
  "\u2581attacca": 7832,
  "\u2581cerchi": 7833,
  "\u2581vendite": 7834,
  "\u2581presentate": 7835,
  "lette": 7836,
  "INE": 7837,
  "\u2581kingdom": 7838,
  "\u2581fisica": 7839,
  "\u2581ministro": 7840,
  "rr": 7841,
  "\u2581amateur": 7842,
  "\u2581rilascio": 7843,
  "\u2581provvedimenti": 7844,
  "\u2581Pagamento": 7845,
  "\u2581adequate": 7846,
  "\u2581retro": 7847,
  "\u2581periodi": 7848,
  "\u2581Viaggi": 7849,
  "\u2581piatto": 7850,
  "\u258176": 7851,
  "fel": 7852,
  "\u2581vengano": 7853,
  "\u2581istruzione": 7854,
  "\u258182": 7855,
  "kg": 7856,
  "\u2581shoot": 7857,
  "rmon": 7858,
  "ult": 7859,
  "\u2581calo": 7860,
  "\u2581vital": 7861,
  "\u2581diventato": 7862,
  "\u2581imagine": 7863,
  "\u2581importi": 7864,
  "\u2581cycle": 7865,
  "\u2581religione": 7866,
  "\u2581notifica": 7867,
  "pedi": 7868,
  "enna": 7869,
  "vate": 7870,
  "\u2581bringing": 7871,
  "act": 7872,
  "impiego": 7873,
  "\u2581changing": 7874,
  "\u2581<": 7875,
  "\u2581inclusa": 7876,
  "\u2581USE": 7877,
  "\u2581employed": 7878,
  "\u2581larger": 7879,
  "cc": 7880,
  "doc": 7881,
  "\u25815%": 7882,
  "\u2581supporta": 7883,
  "graf": 7884,
  "\u2581piattaforma": 7885,
  "\u2581Bay": 7886,
  "\u2581istruzioni": 7887,
  "ban": 7888,
  "\u2581dotato": 7889,
  "\u2581priorities": 7890,
  "\u2581condotta": 7891,
  "\u2581trovi": 7892,
  "ewsletter": 7893,
  "opportunit\u00e0": 7894,
  "char": 7895,
  "\u2581fibre": 7896,
  "lex": 7897,
  "\u2581helped": 7898,
  "\u2581ulteriore": 7899,
  "\u2581climb": 7900,
  "\u2581cara": 7901,
  "bert": 7902,
  "\u2581Svezia": 7903,
  ".7": 7904,
  "\u2581Spe": 7905,
  "\u2581interior": 7906,
  "\u2581DNA": 7907,
  "\u2581realize": 7908,
  "\u2581rapida": 7909,
  "\u2581vedi": 7910,
  "mico": 7911,
  "detto": 7912,
  "\u2581authorised": 7913,
  "ingresso": 7914,
  "\u2581complessivo": 7915,
  "\u2581experiences": 7916,
  "\u2581remote": 7917,
  "r\u00e9": 7918,
  "\u2581Quale": 7919,
  "\u2581fourth": 7920,
  "\u2581residenziale": 7921,
  "\u2581entrata": 7922,
  "\u2581discuss": 7923,
  "\u2581scadenza": 7924,
  "\u2581depends": 7925,
  "\u2581fattore": 7926,
  "\u2581giudizio": 7927,
  "\u2581procedimento": 7928,
  "\u2581XVI": 7929,
  "\u2581constant": 7930,
  "rop": 7931,
  "\u2581compatible": 7932,
  "\u2581marked": 7933,
  "93": 7934,
  "\u2581fornitura": 7935,
  "\u2581IVA": 7936,
  "\u2581avviare": 7937,
  "\u2581minore": 7938,
  "\u2581mis": 7939,
  "\u2581dimostra": 7940,
  "\u2581appreciate": 7941,
  "\u2581SO": 7942,
  "phone": 7943,
  "\u2581Washington": 7944,
  "versa": 7945,
  "\u2581intenzione": 7946,
  "\":": 7947,
  "\u2581holidays": 7948,
  "\u2581geo": 7949,
  "2004": 7950,
  "atur": 7951,
  "Cl": 7952,
  "mission": 7953,
  "fasci": 7954,
  "\u2581Everything": 7955,
  "\u2581ran": 7956,
  "\u2581arrivato": 7957,
  "\u2581receiving": 7958,
  "\u2581Among": 7959,
  "\u2581charges": 7960,
  "LA": 7961,
  "\u25812007,": 7962,
  "\u2581sides": 7963,
  "\u2581costruito": 7964,
  "isce": 7965,
  "\u2581apertura": 7966,
  "\u2581healthy": 7967,
  "\u2581perfectly": 7968,
  "\u2581frame": 7969,
  "\u2581Sin": 7970,
  "\u2581boys": 7971,
  "diamo": 7972,
  "atch": 7973,
  "\u2581Entr": 7974,
  "\u2581regolare": 7975,
  "fica": 7976,
  "TP": 7977,
  "\u2581Segu": 7978,
  "\u2581careful": 7979,
  "\u2581ju": 7980,
  "\u2581manuale": 7981,
  "\u2581Lisbona": 7982,
  "\u2581updated": 7983,
  "He": 7984,
  "\u2581Register": 7985,
  "mis": 7986,
  "\u2581Pur": 7987,
  "\u2581Piano": 7988,
  "wear": 7989,
  "\u2581comprehensive": 7990,
  "\u2581Local": 7991,
  "\u2581connections": 7992,
  "lev": 7993,
  "\u2581transmission": 7994,
  "\u2581progettazione": 7995,
  "\u2581corner": 7996,
  "\u2581tea": 7997,
  "\u2581tocca": 7998,
  "\u2581HAS": 7999,
  "\u2581comprendere": 8000,
  "uf": 8001,
  "\u25812)": 8002,
  "\u2581Single": 8003,
  "\u2581therapy": 8004,
  "\u2581worse": 8005,
  "iu": 8006,
  "\u2581Monday": 8007,
  "Qua": 8008,
  "\u2581netto": 8009,
  "\u2581Could": 8010,
  "fan": 8011,
  "appuntamento": 8012,
  "izza": 8013,
  "\u258181": 8014,
  "\u2581inserire": 8015,
  "\u2581allowing": 8016,
  "stein": 8017,
  "\u258178": 8018,
  "\u2581evidente": 8019,
  "nella": 8020,
  "ump": 8021,
  "hang": 8022,
  "\u2581positions": 8023,
  "uria": 8024,
  "\u2581closer": 8025,
  "\u2581riconosce": 8026,
  "\u2581Country": 8027,
  "\u2581den": 8028,
  "\u2581segreto": 8029,
  "\u2581cure": 8030,
  "\u2581Denmark": 8031,
  "eck": 8032,
  "\u2581limitato": 8033,
  "\u2581Joseph": 8034,
  "lines": 8035,
  "\u2581combattere": 8036,
  "\u2581inizi": 8037,
  "bio": 8038,
  "\u2581sedi": 8039,
  "71": 8040,
  "\u2581SP": 8041,
  "\u2581organizzato": 8042,
  "\u2581ricerche": 8043,
  "\u25812000,": 8044,
  "\u2581England": 8045,
  "\u2581chiese": 8046,
  "\u2581Comunque": 8047,
  "\u2581situata": 8048,
  "thing": 8049,
  "\u2581refers": 8050,
  "\u2581returned": 8051,
  "\u2581neck": 8052,
  "onic": 8053,
  "\u2581somebody": 8054,
  "\u2581spoke": 8055,
  "\u2581Stampa": 8056,
  "kt": 8057,
  "\u2581represented": 8058,
  "\u2581Arc": 8059,
  "nova": 8060,
  "\u2581reveal": 8061,
  "~": 8062,
  "\u2581finch\u00e9": 8063,
  "nger": 8064,
  "\u2581governance": 8065,
  "\u2581Was": 8066,
  "\u2581lunch": 8067,
  "\u2581starts": 8068,
  "\u2581beat": 8069,
  "\u2581presentati": 8070,
  "\u2581AD": 8071,
  "\u2581organizations": 8072,
  "\u2581subparagraph": 8073,
  "\";": 8074,
  "\u2581adult": 8075,
  "\u2581covers": 8076,
  "tress": 8077,
  "dire": 8078,
  "\u2581brings": 8079,
  "\u2581impa": 8080,
  "\u2581sharing": 8081,
  "\u2581specialmente": 8082,
  "\u2581godere": 8083,
  "\u2581Os": 8084,
  "anza": 8085,
  "\u258163": 8086,
  "\u2581worship": 8087,
  "\u2581gal": 8088,
  "ootball": 8089,
  "\u2581testing": 8090,
  "\u2581segni": 8091,
  "\u2581pazz": 8092,
  "\u2581conoscenze": 8093,
  "\u2581Disponibilit\u00e0": 8094,
  "gini": 8095,
  "oll": 8096,
  "\u2581Dall": 8097,
  "\u2581lavorato": 8098,
  "\u2581campaign": 8099,
  "\u25812006,": 8100,
  "\u2581comprese": 8101,
  "\u2581fault": 8102,
  "\u2581accession": 8103,
  "ien": 8104,
  "\u2581confidence": 8105,
  "making": 8106,
  "\u2581weekend": 8107,
  "\u2581colli": 8108,
  "\u2581honey": 8109,
  "\u25a0": 8110,
  "\u2581NT": 8111,
  "\u2581ossia": 8112,
  "\u2581Foreign": 8113,
  "OT": 8114,
  "\u2581presentano": 8115,
  "\u2581broad": 8116,
  "\u2581career": 8117,
  "\u2581fasi": 8118,
  "\u2581farmers": 8119,
  "\u2581potente": 8120,
  "\u2581considera": 8121,
  "\u2581wave": 8122,
  "\u2581adatta": 8123,
  "\u2581Natura": 8124,
  "\u2581forest": 8125,
  "\u2581Cru": 8126,
  "\u2581Join": 8127,
  "\u2581usi": 8128,
  "\u2581successivamente": 8129,
  "dine": 8130,
  "\u2581marine": 8131,
  "\u2581rispettare": 8132,
  "\u2581appearance": 8133,
  "\u2581Naples": 8134,
  "\u2581orologi": 8135,
  "\u2581raw": 8136,
  "\u2581forno": 8137,
  "\u2581presentation": 8138,
  "\u2581department": 8139,
  "\u2581dress": 8140,
  "\u2581basata": 8141,
  "\u2581avviene": 8142,
  "\u2581trial": 8143,
  "800": 8144,
  "\u2581sapevo": 8145,
  "\u2581ammessi": 8146,
  "\u2581droga": 8147,
  "\u2581Doc": 8148,
  "\u2581raccomandazioni": 8149,
  "\u2581Cook": 8150,
  "\u2581Ancora": 8151,
  "\u2581stands": 8152,
  "\u2581concessione": 8153,
  "\u2581effettuato": 8154,
  "\u2581Technology": 8155,
  "\u2581effettuati": 8156,
  "archi": 8157,
  "\u2581venuta": 8158,
  "\u2581attra": 8159,
  "\u2581heating": 8160,
  "\u2581rent": 8161,
  "\u2581110": 8162,
  "\u2581Full": 8163,
  "\u00f3n": 8164,
  "\u2581entrambe": 8165,
  "\u2581audit": 8166,
  "\u2581shut": 8167,
  "\u2581salvare": 8168,
  "\u2581edificio": 8169,
  "\u258166": 8170,
  "-20": 8171,
  "\u2581calore": 8172,
  "\u2581BE": 8173,
  "\u2581concert": 8174,
  "\u2581tratti": 8175,
  "\u2581concluso": 8176,
  "\u2581director": 8177,
  "\u2581partito": 8178,
  "\u25811981": 8179,
  "St": 8180,
  "\u2581Budapest": 8181,
  "\u2581Page": 8182,
  "\u258112.": 8183,
  "\u25812004,": 8184,
  "\u2581mento": 8185,
  "\u2581anziani": 8186,
  "\u2581pensioni": 8187,
  "\u2581techniques": 8188,
  "\u2581moneta": 8189,
  "\u2581Sarebbe": 8190,
  "\u2581tar": 8191,
  "rel": 8192,
  "\u2581nazioni": 8193,
  "vision": 8194,
  "\u2581checks": 8195,
  "\u2581connect": 8196,
  "\u2581associazioni": 8197,
  "\u2581exceed": 8198,
  "\u2581involving": 8199,
  "\u2581Japanese": 8200,
  "\u2581vite": 8201,
  "\u2581perci\u00f2": 8202,
  "\u2581putting": 8203,
  "arma": 8204,
  "\u2581ambito": 8205,
  "AP": 8206,
  "iah": 8207,
  "\u2581derivanti": 8208,
  "\u2581saved": 8209,
  "\u2581certi": 8210,
  "\u2581ampia": 8211,
  "\u2581calcio": 8212,
  "\u2581investments": 8213,
  "py": 8214,
  "\u2581pronti": 8215,
  "name": 8216,
  "PA": 8217,
  "esa": 8218,
  "\u2581trend": 8219,
  "mati": 8220,
  "PL": 8221,
  "\u2581agire": 8222,
  "\u2581catena": 8223,
  "1)": 8224,
  "\u2581Lady": 8225,
  "\u2581contemporar": 8226,
  "\u2581Generale": 8227,
  "\u2581svolta": 8228,
  "\u2581agency": 8229,
  "\u2581regolamenti": 8230,
  "\u258167": 8231,
  "\u2581aspettare": 8232,
  "mbre": 8233,
  "RA": 8234,
  "\u2581Veneto": 8235,
  "\u2581stupid": 8236,
  "\u2581thy": 8237,
  "\u2581definito": 8238,
  "cali": 8239,
  "eg": 8240,
  "\u2581quantities": 8241,
  "\u2581effectively": 8242,
  "\u2581absence": 8243,
  "\u2581appointed": 8244,
  "\u2581Iran": 8245,
  "\u2581reducing": 8246,
  "\u2581Arti": 8247,
  "uc": 8248,
  "\u2581sbagliato": 8249,
  "\u2581Croatia": 8250,
  "\u2581applying": 8251,
  "\u2581Paper": 8252,
  "\u2581carbon": 8253,
  "tate": 8254,
  "\u2581load": 8255,
  "\u2581Polonia": 8256,
  "esercito": 8257,
  "kh": 8258,
  "\u2581adottata": 8259,
  "\u2581kilo": 8260,
  "gram": 8261,
  "\u2581buoni": 8262,
  "\u2581School": 8263,
  "Te": 8264,
  "\u2581plastica": 8265,
  "\u2581roof": 8266,
  "\u258111.": 8267,
  "\u2581Set": 8268,
  "adesione": 8269,
  "\u25812009,": 8270,
  "\u2581Rights": 8271,
  "\u2581respond": 8272,
  "ological": 8273,
  "\u2581divided": 8274,
  "\u2581restare": 8275,
  "Ver": 8276,
  "\u2581competitiveness": 8277,
  "\u2581composed": 8278,
  "\u2581shoes": 8279,
  "\u2581accident": 8280,
  "\u2581finalmente": 8281,
  "\u2581File": 8282,
  "\u2581Comune": 8283,
  "\u2581Activities": 8284,
  "\u2581considerable": 8285,
  "ars": 8286,
  "cultura": 8287,
  "\u2581tables": 8288,
  "cole": 8289,
  "\u2581Hall": 8290,
  "cfr": 8291,
  "\u2581Done": 8292,
  "\u2581universal": 8293,
  "\u2581reg": 8294,
  "mila": 8295,
  "\u2581tablets": 8296,
  "\u2581worldwide": 8297,
  "\u2581ADOTTAT": 8298,
  "\u2581Oli": 8299,
  "\u2581Square": 8300,
  "\u2581author": 8301,
  "\u2581Stock": 8302,
  "\u2581invite": 8303,
  "aspetto": 8304,
  "\u2581momenti": 8305,
  "\u2581spagnolo": 8306,
  "ML": 8307,
  "\u2581ostacoli": 8308,
  "\u2581sacr": 8309,
  "\u2581Giust": 8310,
  "\u2581mutual": 8311,
  "-4": 8312,
  "400": 8313,
  "\u2581Workers": 8314,
  "1999": 8315,
  "eur": 8316,
  "\u2581ricco": 8317,
  "\u2581presi": 8318,
  "rew": 8319,
  "zen": 8320,
  "\u2581ADOPTED": 8321,
  "phe": 8322,
  "\u2581chain": 8323,
  "olic": 8324,
  "\u2581Danimarca": 8325,
  "\u2581interamente": 8326,
  "\u2581EEC": 8327,
  "\u2581determinati": 8328,
  "\u2581subjects": 8329,
  "\u2581disposal": 8330,
  "\u2581drawing": 8331,
  "\u2581Thursday": 8332,
  "\u2581consigli": 8333,
  "\u2581venti": 8334,
  "\u2581taglio": 8335,
  "AS": 8336,
  "\u2581firma": 8337,
  "efficacia": 8338,
  "\u2581mura": 8339,
  "logico": 8340,
  "\u2581DELLA": 8341,
  "\u2581grounds": 8342,
  "a\u00f1": 8343,
  "olio": 8344,
  "\u2581Castle": 8345,
  "\u2581corretto": 8346,
  "\u2581\u00a3": 8347,
  "\u2581determinazione": 8348,
  "\u2581yesterday": 8349,
  "\u2581Region": 8350,
  "\u2581mixed": 8351,
  "\u2581Fred": 8352,
  "ova": 8353,
  "hy": 8354,
  "\u2581aeroporto": 8355,
  "\u2581disegno": 8356,
  "\u2581lake": 8357,
  "\u2581elettrico": 8358,
  "\u2581nucleare": 8359,
  "\u2581tariffe": 8360,
  "\u2581cancer": 8361,
  "\u2581pilota": 8362,
  "\u2581Pap": 8363,
  "\u2581dimentica": 8364,
  "\u2581comparison": 8365,
  "\u2581Presidenza": 8366,
  "\u2581honor": 8367,
  "\u2581agents": 8368,
  "\u2581planet": 8369,
  "war": 8370,
  "\u2581Fondazione": 8371,
  "cate": 8372,
  "\u2581dedicata": 8373,
  "\u2581surprise": 8374,
  "\u2581riguardano": 8375,
  "\u2581broken": 8376,
  "\u2581reporting": 8377,
  "\u2581mix": 8378,
  "ease": 8379,
  "\u2581student": 8380,
  "\u2581contenenti": 8381,
  "\u2581RO": 8382,
  "\u2581sur": 8383,
  "\u2581sarem": 8384,
  "\u2581operator": 8385,
  "rent": 8386,
  "\u2581carriera": 8387,
  "\u2581125": 8388,
  "\u2581crescente": 8389,
  "\u25812008,": 8390,
  "\u2581mode": 8391,
  "\u2581older": 8392,
  "\u2581Berlino": 8393,
  "\u2581Pier": 8394,
  "\u2581slow": 8395,
  "\u2581moderna": 8396,
  "\u2581ritrova": 8397,
  "\u2581braccia": 8398,
  "\u2581edizione": 8399,
  "\u2581alluminio": 8400,
  "\u2581adults": 8401,
  "\u2581install": 8402,
  "\u2581Valutazione": 8403,
  "\u2581declared": 8404,
  "\u2581definitely": 8405,
  "\u2581cava": 8406,
  "\u2581finanziamenti": 8407,
  "\u2581sentenza": 8408,
  "lus": 8409,
  "\u2581sapeva": 8410,
  "600": 8411,
  "\u2581realizzati": 8412,
  "\u2581continuo": 8413,
  "\u2581formal": 8414,
  "\u2581esprimere": 8415,
  "ient": 8416,
  "\u2581solidariet\u00e0": 8417,
  "\u2581seduta": 8418,
  "\u2581sintomi": 8419,
  "\u25812010,": 8420,
  "Mi": 8421,
  "\u2581commento": 8422,
  "\u2581explained": 8423,
  "\u2581sviluppi": 8424,
  "\u2581smaller": 8425,
  "\u2581uccidere": 8426,
  "\u2581block": 8427,
  "\u2581CN": 8428,
  "\u2581coscienza": 8429,
  "\u2581160": 8430,
  "\u2581carefully": 8431,
  "\u2581automaticamente": 8432,
  "\u2581recognize": 8433,
  "wan": 8434,
  "OP": 8435,
  "\u2581prigione": 8436,
  "\u2581requirement": 8437,
  "\u2581utilizzate": 8438,
  "\u2581poverty": 8439,
  "\u2581nation": 8440,
  "\u2581examination": 8441,
  "\u2581360": 8442,
  "\u2581bottle": 8443,
  "-6": 8444,
  "arrivo": 8445,
  "MM": 8446,
  "\u2581colla": 8447,
  "\u2581mechanism": 8448,
  "\u2581nuovamente": 8449,
  "\u2581pasta": 8450,
  "\u2581autobus": 8451,
  "\u2581ecu": 8452,
  "rendono": 8453,
  "pina": 8454,
  "\u2581rispettivamente": 8455,
  "\u2581adatto": 8456,
  "\u2581instructions": 8457,
  "\u2581secondi": 8458,
  "\u2581Rela": 8459,
  "\u2581isole": 8460,
  "\u25811970": 8461,
  "amic": 8462,
  "venta": 8463,
  "\u2581cave": 8464,
  "\u2581chiara": 8465,
  "autore": 8466,
  "\u2581sfruttare": 8467,
  "asil": 8468,
  "bon": 8469,
  "\u2581parit\u00e0": 8470,
  "scio": 8471,
  "\u2581vivono": 8472,
  "namento": 8473,
  "\u2581disposto": 8474,
  "\u2581caught": 8475,
  "zu": 8476,
  "\u2581elezioni": 8477,
  "\u2581Mov": 8478,
  "\u2581Vale": 8479,
  "dore": 8480,
  "\u25811982": 8481,
  "\u2581filled": 8482,
  "ME": 8483,
  "\u2581suono": 8484,
  "\u2581riso": 8485,
  "\u2581percent": 8486,
  "\u2581manufacturing": 8487,
  "4.": 8488,
  "\u2581chiedo": 8489,
  "\u2581remind": 8490,
  "CC": 8491,
  "oggi": 8492,
  "\u25812005,": 8493,
  "\u2581freddo": 8494,
  "\u2581favorire": 8495,
  "\u2581importo": 8496,
  "\u2581toward": 8497,
  "\u2581seeking": 8498,
  "gran": 8499,
  "edificio": 8500,
  "pote": 8501,
  "\u2581shares": 8502,
  "credibile": 8503,
  "\u2581cellule": 8504,
  "\u2581pol": 8505,
  "\u2581announced": 8506,
  "\u2581onto": 8507,
  "\u2581pleasant": 8508,
  "\u2581PRESENTE": 8509,
  "\u2581usando": 8510,
  "\u2581launched": 8511,
  "\u2581alloggio": 8512,
  "\u2581ricca": 8513,
  "\u2581altrimenti": 8514,
  "\u2581sufficienti": 8515,
  "\u2581esterne": 8516,
  "\u2581LE": 8517,
  "\u2581centuries": 8518,
  "\u2581Federal": 8519,
  "\u2581shops": 8520,
  "chen": 8521,
  "\u2581riferisce": 8522,
  "\u2581continuing": 8523,
  "\u2581vin": 8524,
  "tr": 8525,
  "\u2581COMMISSIONE": 8526,
  "\u2581willing": 8527,
  "\u2581learned": 8528,
  "\u2581iscritto": 8529,
  "\u2581contrary": 8530,
  "\u2581contributions": 8531,
  "................": 8532,
  "\u2581associate": 8533,
  "].": 8534,
  "\u2581basa": 8535,
  "\u2581rappresentante": 8536,
  "\u2581considerata": 8537,
  "\u2581Strip": 8538,
  "\u2581elevata": 8539,
  "\u2581collect": 8540,
  "\u2581stan": 8541,
  "\u2581spaces": 8542,
  "\u2581pulsante": 8543,
  "2005": 8544,
  "\u2581Credit": 8545,
  "ampia": 8546,
  "\u2581Past": 8547,
  "\u2581incontra": 8548,
  "\u2581GDP": 8549,
  "\u2581(4": 8550,
  "nik": 8551,
  "albero": 8552,
  "\u2581dominio": 8553,
  "\u2581afternoon": 8554,
  "\u25813-": 8555,
  "spira": 8556,
  "RS": 8557,
  "vra": 8558,
  "\u2581Czech": 8559,
  "\u2581aspect": 8560,
  "\u2581intero": 8561,
  "\u258197": 8562,
  "\u2581ap": 8563,
  "ography": 8564,
  "\u2581Egypt": 8565,
  "ify": 8566,
  "\u2581Safety": 8567,
  "\u2581giudice": 8568,
  "\u2581operate": 8569,
  "\u2581raccogliere": 8570,
  "\u2581experienced": 8571,
  "ml": 8572,
  "\u2581clothes": 8573,
  "\u2581Protection": 8574,
  "\u2581female": 8575,
  "\u2581ratio": 8576,
  "nit\u00e0": 8577,
  "\u2581condividere": 8578,
  "\u2581monetaria": 8579,
  "GR": 8580,
  "\u25812010.": 8581,
  "\u2581noise": 8582,
  "\u2581credi": 8583,
  "6%": 8584,
  "bil": 8585,
  "r\u00ec": 8586,
  "\u2581launch": 8587,
  "\u2581repair": 8588,
  "\u2581none": 8589,
  "\u2581cleaning": 8590,
  "abbiamo": 8591,
  "\u2581fisheries": 8592,
  "\u2581cat": 8593,
  "\u2581effettuate": 8594,
  "\u2581favorevole": 8595,
  "\u2581apre": 8596,
  "\u2581porre": 8597,
  "\u2581Carta": 8598,
  "ground": 8599,
  "\u2581Long": 8600,
  "\u2581causes": 8601,
  "\u2581finance": 8602,
  "\u2581popoli": 8603,
  "tuning": 8604,
  "\u2581finding": 8605,
  "c\u00f2": 8606,
  "\u2581efficiente": 8607,
  "\u2581FI": 8608,
  "\u2581organised": 8609,
  "\"),": 8610,
  "\u2581integrato": 8611,
  "avi": 8612,
  "\u2581Quant": 8613,
  "\u2581communities": 8614,
  "\u2581gain": 8615,
  "\u2581(5": 8616,
  "\u2581Croazia": 8617,
  "\u2581namely": 8618,
  "\u2581voler": 8619,
  "estate": 8620,
  "\u2581concentration": 8621,
  "\u2581failed": 8622,
  "fect": 8623,
  "\u2581moderni": 8624,
  "And": 8625,
  "\u2581Big": 8626,
  "\u2581Middle": 8627,
  "\u2581Bad": 8628,
  "hit": 8629,
  "\u2581tranquilla": 8630,
  "\u2581sente": 8631,
  "aid": 8632,
  "\u2581eseguire": 8633,
  "\u2581minaccia": 8634,
  "\u2581Internazionale": 8635,
  "\u2581rosa": 8636,
  "\u2581yellow": 8637,
  "uno": 8638,
  "\u2581povert\u00e0": 8639,
  "\u2581sky": 8640,
  "\u2581container": 8641,
  "\u2581calda": 8642,
  "\u2581orale": 8643,
  "\u2581correttamente": 8644,
  "\u2581interpretation": 8645,
  "\u2581profit": 8646,
  "\u2581Imp": 8647,
  "ising": 8648,
  "tect": 8649,
  "\u2581twice": 8650,
  "\u2581Role": 8651,
  "\u2581claims": 8652,
  "\u2581proprietario": 8653,
  "segui": 8654,
  "\u2581records": 8655,
  "\u2581symptoms": 8656,
  "udo": 8657,
  "\u2581conducted": 8658,
  "ulation": 8659,
  "\u2581Sardinia": 8660,
  "\u2581tendenza": 8661,
  "\u2581assist": 8662,
  "\u258194": 8663,
  "\u2581COMMISSION": 8664,
  "\u2581Quest": 8665,
  "\u2581recentemente": 8666,
  "elaborazione": 8667,
  "\u2581Ministers": 8668,
  "\u2581scarpe": 8669,
  "\u2581sottolinea": 8670,
  "\u2581salta": 8671,
  "MB": 8672,
  "\u2581federale": 8673,
  "\u2581http": 8674,
  "UT": 8675,
  "\u2581pane": 8676,
  "\u2581Environment": 8677,
  "\u2581giuridico": 8678,
  "\u2581affermato": 8679,
  "\u2581increasingly": 8680,
  "\u2581riconosciuto": 8681,
  "\u2581tavola": 8682,
  "\u2581entit\u00e0": 8683,
  "\u2581GmbH": 8684,
  "\u2581Noti": 8685,
  "0/": 8686,
  "\u2581compagnie": 8687,
  "\u2581Kit": 8688,
  "atura": 8689,
  "\u2581Compar": 8690,
  "\u2581remaining": 8691,
  "\u2581opinions": 8692,
  "\u2581brucia": 8693,
  "alla": 8694,
  "\u2581prevedere": 8695,
  "\u2581originating": 8696,
  "\u2581simbolo": 8697,
  "\u2581Euratom": 8698,
  "\u2581horse": 8699,
  "\u2581Animali": 8700,
  "\u2581reply": 8701,
  "\u2581poche": 8702,
  "\u25812003,": 8703,
  "cono": 8704,
  "\u2581Wednesday": 8705,
  "\u2581resi": 8706,
  "\u2581Nuov": 8707,
  "Assemblea": 8708,
  "script": 8709,
  "\u2581Picture": 8710,
  "\u2581Tele": 8711,
  "bol": 8712,
  "\u2581risultano": 8713,
  "\u2581composizione": 8714,
  "\u2581occidentale": 8715,
  "tario": 8716,
  "\u2581Stan": 8717,
  "\u2581Title": 8718,
  "\u2581DG": 8719,
  "\u2581decorrere": 8720,
  "\u2581zi": 8721,
  "\u2581resistance": 8722,
  "\u2581nearby": 8723,
  "\u2581awareness": 8724,
  "\u2581classificazione": 8725,
  "\u2581raggiunge": 8726,
  "\u2581transfrontalier": 8727,
  "ral": 8728,
  "\u2581Dati": 8729,
  "\u2581reserve": 8730,
  "\u258171": 8731,
  "tus": 8732,
  "\u2581Esse": 8733,
  "\u2581fund": 8734,
  "\u2581codes": 8735,
  "\u2581cottura": 8736,
  "pet": 8737,
  "\u2581Conferenza": 8738,
  "\u2581indicati": 8739,
  "\u2581covering": 8740,
  "anima": 8741,
  "\u2581ge": 8742,
  "\u25811.5": 8743,
  "evento": 8744,
  "\u2581Eastern": 8745,
  "\u2581transactions": 8746,
  "\u2581legati": 8747,
  "\u2581ana": 8748,
  "eti": 8749,
  "\u2581calculated": 8750,
  "\u2581Kin": 8751,
  "\u2581devoted": 8752,
  "\u2581Women": 8753,
  "DR": 8754,
  "\u2581Global": 8755,
  "\u2581ridotto": 8756,
  "\u2581canali": 8757,
  "\u2581Li": 8758,
  "metri": 8759,
  "\u2581prossimi": 8760,
  "\u2581Tru": 8761,
  "LO": 8762,
  "lto": 8763,
  "\u2581Hy": 8764,
  "\u2581vanta": 8765,
  "\u2581Industrial": 8766,
  "\u2581osserva": 8767,
  "\u2581Atti": 8768,
  "\u2581segnale": 8769,
  "\u2581Both": 8770,
  "odio": 8771,
  "Li": 8772,
  "agged": 8773,
  "\u2581kinds": 8774,
  "\u2581vende": 8775,
  "gang": 8776,
  "\u2581corrispondente": 8777,
  "\u2581servono": 8778,
  "\u2581incontri": 8779,
  "\u2581[1]": 8780,
  "If": 8781,
  "\u2581depending": 8782,
  "EG": 8783,
  "\u2581mobilit\u00e0": 8784,
  "\u2581proof": 8785,
  "rive": 8786,
  "\u2581Lux": 8787,
  "\u2581cosiddett": 8788,
  "uscita": 8789,
  "\u203a": 8790,
  "\u2581aggiunta": 8791,
  "\u2581falling": 8792,
  "\u2581Text": 8793,
  "\u2581upper": 8794,
  "\u2581Bou": 8795,
  "vit\u00e0": 8796,
  "bur": 8797,
  "ith": 8798,
  "\u2581lady": 8799,
  "\u2581spettacolo": 8800,
  "\u2581dev": 8801,
  "\u2581holy": 8802,
  "\u2581amministrazione": 8803,
  "\u2581filo": 8804,
  "\u2581GR": 8805,
  "\u2581panel": 8806,
  "Autorit\u00e0": 8807,
  "\u2581faceva": 8808,
  "\u2581Pont": 8809,
  "\u2581Shu": 8810,
  "spar": 8811,
  "\u2581sabato": 8812,
  "cari": 8813,
  "\u2581secoli": 8814,
  "\u2581speech": 8815,
  "\u2581NO": 8816,
  "\u2581Rating": 8817,
  "\u2581generalmente": 8818,
  "mbe": 8819,
  "\u2581desidero": 8820,
  "\u2581trading": 8821,
  "\u2581zo": 8822,
  "#": 8823,
  "\u2581stable": 8824,
  "rich": 8825,
  "vir": 8826,
  "\u2581metallo": 8827,
  "like": 8828,
  "\u2581contrast": 8829,
  "\u2581gomma": 8830,
  "\u2581Station": 8831,
  "3%": 8832,
  "\u25812005.": 8833,
  "\u2581Question": 8834,
  "\u2581grace": 8835,
  "gioni": 8836,
  "aj": 8837,
  "lish": 8838,
  "\u2581effettuata": 8839,
  "\u2581cry": 8840,
  "\u2581dimostrare": 8841,
  "\u2581proud": 8842,
  "\u2581cammino": 8843,
  "\u2581pollution": 8844,
  "europa": 8845,
  "\u2581istituti": 8846,
  "\u2581prospettive": 8847,
  "\u2581frutto": 8848,
  "\u2581flu": 8849,
  "gregazione": 8850,
  "\u2581flusso": 8851,
  "\u2581bread": 8852,
  "\u2581cristiana": 8853,
  "\u2581municipality": 8854,
  "\u2581anyway": 8855,
  "\u2581scenario": 8856,
  "\u2581dealing": 8857,
  "\u2581dumping": 8858,
  "\u2581frontiere": 8859,
  "\u2581Facilities": 8860,
  "\u2581festival": 8861,
  "\u2581agencies": 8862,
  "\u2581limitata": 8863,
  "\u2581defend": 8864,
  "\u2581fatte": 8865,
  "cchio": 8866,
  "osci": 8867,
  "\u2581schia": 8868,
  "\u2581tablet": 8869,
  "estero": 8870,
  "\u2581mad": 8871,
  "\u2581ponte": 8872,
  "\u2581Payment": 8873,
  "\u2581Double": 8874,
  "\u2581prejudice": 8875,
  "\u2581bambina": 8876,
  "media": 8877,
  "\u2581leaders": 8878,
  "osi": 8879,
  "\u2581pianta": 8880,
  "\u2581lavorazione": 8881,
  "\u2581trasforma": 8882,
  "\u2581fabbrica": 8883,
  "\u2581formed": 8884,
  "\u2581fla": 8885,
  "\u2581ruin": 8886,
  "\u2581fill": 8887,
  "\u2581sample": 8888,
  "\u2581solidarity": 8889,
  "GA": 8890,
  "\u2581meccanismi": 8891,
  "\u2581alcohol": 8892,
  "vedi": 8893,
  "\u2581angel": 8894,
  "efficienza": 8895,
  "tain": 8896,
  "\u2581magari": 8897,
  "Da": 8898,
  "\u2581vuol": 8899,
  "\u2581considerati": 8900,
  "\u2581Mare": 8901,
  "\u2581MA": 8902,
  "\u2581Gil": 8903,
  "associazione": 8904,
  "\u2581perde": 8905,
  "\u2581Mad": 8906,
  "\u2581automatico": 8907,
  "\u2581substantial": 8908,
  "\u2581creative": 8909,
  "\u2581accordingly": 8910,
  "\u2581suffer": 8911,
  "\u2581Fr": 8912,
  "ika": 8913,
  "\u2581Syn": 8914,
  "\u2581Prop": 8915,
  "\u2581eccellente": 8916,
  "\u2581hearing": 8917,
  "\u2581energetico": 8918,
  "\u2581exceeding": 8919,
  "\u2581guarantees": 8920,
  "\u2581Arab": 8921,
  "\u2581Giuseppe": 8922,
  "\u2581popolari": 8923,
  "\u0161": 8924,
  "\u2581utente": 8925,
  "\u2581hum": 8926,
  "\u2581classificati": 8927,
  "\u2581alberi": 8928,
  "guard": 8929,
  "\u2581esportazioni": 8930,
  "\u2581enhance": 8931,
  "\u2581Sotto": 8932,
  "\u2581Should": 8933,
  "\u2581discorso": 8934,
  "\u2581obbligatorio": 8935,
  "\u2581Brazil": 8936,
  "\u2581ingredients": 8937,
  "\u2581vole": 8938,
  "\u2581pronta": 8939,
  "\u2581uniform": 8940,
  "ds": 8941,
  "\u2581Ges": 8942,
  "ates": 8943,
  "atmosfera": 8944,
  "\u2581chapter": 8945,
  "\u2581dishes": 8946,
  "vora": 8947,
  "\u2581stories": 8948,
  "\u2581collected": 8949,
  "Africa": 8950,
  "\u2581Est": 8951,
  "\u2581professionisti": 8952,
  "gressi": 8953,
  "\u2581spiace": 8954,
  "nei": 8955,
  "\u2581conveniente": 8956,
  "\u2581cutting": 8957,
  "\u2581Spazio": 8958,
  "\u2581inaugura": 8959,
  "\u25812008.": 8960,
  "\u2581silver": 8961,
  "\u2581define": 8962,
  "denti": 8963,
  "\u2581artistic": 8964,
  "rno": 8965,
  "\u2581mostrato": 8966,
  "visi": 8967,
  "\u2581volto": 8968,
  "\u2581ovunque": 8969,
  "\u2581finire": 8970,
  "\u2581talun": 8971,
  "data": 8972,
  "\u2581arrived": 8973,
  "\u2581chiamare": 8974,
  "lac": 8975,
  "\u2581significativo": 8976,
  "dam": 8977,
  "under": 8978,
  "\u2581valle": 8979,
  "\u2581progresso": 8980,
  "\u2581ing": 8981,
  "roll": 8982,
  "\u2581conforme": 8983,
  "\u2581Quality": 8984,
  "\u2581Key": 8985,
  "\u2581avessi": 8986,
  "\u2581PA": 8987,
  "\u2581forced": 8988,
  "\u2581(6)": 8989,
  "\u2581scienza": 8990,
  "\u2581adjustment": 8991,
  "\u2581bagagli": 8992,
  "\u2581conversion": 8993,
  "\u2581Wine": 8994,
  "ept": 8995,
  "\u2581facts": 8996,
  "\u2581Clean": 8997,
  "\u2581RT": 8998,
  "\u2581eligible": 8999,
  "\u2581teacher": 9000,
  "\u2581garantisce": 9001,
  "SC": 9002,
  "\u2581tender": 9003,
  "rc": 9004,
  "\u25812002,": 9005,
  "taria": 9006,
  "OL": 9007,
  "\u2581avanzata": 9008,
  "\u2581viva": 9009,
  "chan": 9010,
  "\u2581inspired": 9011,
  "\u2581gi\u00f9": 9012,
  "\u2581Conditions": 9013,
  "\u2581ambienti": 9014,
  "\u2581sottolineato": 9015,
  "\u2581adeguato": 9016,
  "\u2581esaminare": 9017,
  "\u2581sen": 9018,
  "\u2581sanno": 9019,
  "\u2581doors": 9020,
  "\u2581Northern": 9021,
  "\u2581onde": 9022,
  "\u2581reca": 9023,
  "\u2581Leave": 9024,
  "\u2581Privacy": 9025,
  "\u2581avven": 9026,
  "\u2581riconoscere": 9027,
  "\u2581colpo": 9028,
  "\u2581reasonable": 9029,
  "\u2581dotto": 9030,
  "vil": 9031,
  "\u2581colours": 9032,
  "\u2581Terms": 9033,
  "\u2581spalle": 9034,
  "\u2581increases": 9035,
  "rap": 9036,
  "\u2581esteri": 9037,
  "\u2581Point": 9038,
  "\u2581cambiato": 9039,
  "\u2581examples": 9040,
  "\u2581connessi": 9041,
  "\u2581wi": 9042,
  "\u2581viaggiare": 9043,
  "bas": 9044,
  "veni": 9045,
  "\u2581Volevo": 9046,
  "\u2581Quick": 9047,
  "otic": 9048,
  "\u25812006.": 9049,
  "\u2581influenza": 9050,
  "\u2581avendo": 9051,
  "\u2581fornite": 9052,
  "sburg": 9053,
  "\u2581adesione": 9054,
  "lite": 9055,
  "ition": 9056,
  "\u2581persino": 9057,
  "\u2581deposit": 9058,
  "\u2581CAP": 9059,
  "\u2581muove": 9060,
  "\u2581notification": 9061,
  "\u2581Qualora": 9062,
  "sor": 9063,
  "VE": 9064,
  "\u2581Han": 9065,
  "pon": 9066,
  "\u2581restructuring": 9067,
  "border": 9068,
  "\u2581scientifica": 9069,
  "\u2581farsi": 9070,
  "\u2581troviamo": 9071,
  "\u2581Alle": 9072,
  "\u2581Department": 9073,
  "\u2581seriously": 9074,
  "\u2581compensation": 9075,
  "2017": 9076,
  "\u2581Rose": 9077,
  "\u2581autorizzazione": 9078,
  "\u2581140": 9079,
  "\u2581battaglia": 9080,
  "\u2581Mediterraneo": 9081,
  "FA": 9082,
  "\u2581signal": 9083,
  "\u2581hang": 9084,
  "\u2581institutional": 9085,
  "\u2581virtual": 9086,
  "\u2581streets": 9087,
  "\u2581ministero": 9088,
  "\u2581forth": 9089,
  "\u2581prof": 9090,
  "\u2581danger": 9091,
  "\u2581answers": 9092,
  "cato": 9093,
  "vy": 9094,
  "\u2581nearly": 9095,
  "rezza": 9096,
  "\u2581194": 9097,
  "\u2581scheduled": 9098,
  "oes": 9099,
  "\u2581VII": 9100,
  "gor": 9101,
  "\u2581virt\u00f9": 9102,
  "diti": 9103,
  "\u2581attesa": 9104,
  "\u2581salvo": 9105,
  "\u2581giudizi": 9106,
  "niche": 9107,
  "\u2581sostiene": 9108,
  "\u2581communications": 9109,
  "inverno": 9110,
  "\u2581testimonianza": 9111,
  "\u2581Ol": 9112,
  "\u2581AG": 9113,
  "\u2581canto": 9114,
  "\u2581trains": 9115,
  "\u2581diseases": 9116,
  "\u2581indipendenti": 9117,
  "\u2581Film": 9118,
  "\u2581furnished": 9119,
  "\u2581charged": 9120,
  "\u2581consistent": 9121,
  "\u2581cervello": 9122,
  "\u2581AS": 9123,
  "\u2581tend": 9124,
  "str": 9125,
  "\u2581visible": 9126,
  "\u2581Form": 9127,
  "\u2581consentono": 9128,
  "fico": 9129,
  "rini": 9130,
  "\u2581comunicazioni": 9131,
  "ben": 9132,
  "\u2581enlargement": 9133,
  "\u2581Vuol": 9134,
  "\u2581addirittura": 9135,
  "\u2581poveri": 9136,
[...]
